{
  "version": "1.0",
  "truncation": {
    "direction": "Right",
    "max_length": 192,
    "strategy": "LongestFirst",
    "stride": 0
  },
  "padding": null,
  "added_tokens": [
    {
      "id": 0,
      "content": "[PAD]",
      "single_word": false,
      "lstrip": false,
      "rstrip": false,
      "normalized": false,
      "special": true
    },
    {
      "id": 1,
      "content": "[UNK]",
      "single_word": false,
      "lstrip": false,
      "rstrip": false,
      "normalized": false,
      "special": true
    },
    {
      "id": 2,
      "content": "[CLS]",
      "single_word": false,
      "lstrip": false,
      "rstrip": false,
      "normalized": false,
      "special": true
    },
    {
      "id": 3,
      "content": "[SEP]",
      "single_word": false,
      "lstrip": false,
      "rstrip": false,
      "normalized": false,
      "special": true
    },
    {
      "id": 4,
      "content": "[MASK]",
      "single_word": false,
      "lstrip": false,
      "rstrip": false,
      "normalized": false,
      "special": true
    }
  ],
  "normalizer": {
    "type": "BertNormalizer",
    "clean_text": true,
    "handle_chinese_chars": true,
    "strip_accents": null,
    "lowercase": true
  },
  "pre_tokenizer": {
    "type": "BertPreTokenizer"
  },
  "post_processor": {
    "type": "TemplateProcessing",
    "single": [
      {
        "SpecialToken": {
          "id": "[CLS]",
          "type_id": 0
        }
      },
      {
        "Sequence": {
          "id": "A",
          "type_id": 0
        }
      },
      {
        "SpecialToken": {
          "id": "[SEP]",
          "type_id": 0
        }
      }
    ],
    "pair": [
      {
        "SpecialToken": {
          "id": "[CLS]",
          "type_id": 0
        }
      },
      {
        "Sequence": {
          "id": "A",
          "type_id": 0
        }
      },
      {
        "SpecialToken": {
          "id": "[SEP]",
          "type_id": 0
        }
      },
      {
        "Sequence": {
          "id": "B",
          "type_id": 1
        }
      },
      {
        "SpecialToken": {
          "id": "[SEP]",
          "type_id": 1
        }
      }
    ],
    "special_tokens": {
      "[CLS]": {
        "id": "[CLS]",
        "ids": [
          2
        ],
        "tokens": [
          "[CLS]"
        ]
      },
      "[SEP]": {
        "id": "[SEP]",
        "ids": [
          3
        ],
        "tokens": [
          "[SEP]"
        ]
      }
    }
  },
  "decoder": {
    "type": "WordPiece",
    "prefix": "##",
    "cleanup": true
  },
  "model": {
    "type": "WordPiece",
    "unk_token": "[UNK]",
    "continuing_subword_prefix": "##",
    "max_input_chars_per_word": 100,
    "vocab": {
      "[PAD]": 0,
      "[UNK]": 1,
      "[CLS]": 2,
      "[SEP]": 3,
      "[MASK]": 4,
      "!": 5,
      "\"": 6,
      "#": 7,
      "$": 8,
      "%": 9,
      "&": 10,
      "'": 11,
      "(": 12,
      ")": 13,
      "*": 14,
      "+": 15,
      ",": 16,
      "-": 17,
      ".": 18,
      "/": 19,
      "0": 20,
      "1": 21,
      "2": 22,
      "3": 23,
      "4": 24,
      "5": 25,
      "6": 26,
      "7": 27,
      "8": 28,
      "9": 29,
      ":": 30,
      ";": 31,
      "<": 32,
      "=": 33,
      ">": 34,
      "?": 35,
      "@": 36,
      "[": 37,
      "\\": 38,
      "]": 39,
      "^": 40,
      "_": 41,
      "`": 42,
      "a": 43,
      "b": 44,
      "c": 45,
      "d": 46,
      "e": 47,
      "f": 48,
      "g": 49,
      "h": 50,
      "i": 51,
      "j": 52,
      "k": 53,
      "l": 54,
      "m": 55,
      "n": 56,
      "o": 57,
      "p": 58,
      "q": 59,
      "r": 60,
      "s": 61,
      "t": 62,
      "u": 63,
      "v": 64,
      "w": 65,
      "x": 66,
      "y": 67,
      "z": 68,
      "{": 69,
      "|": 70,
      "}": 71,
      "~": 72,
      "¡": 73,
      "¢": 74,
      "£": 75,
      "¤": 76,
      "¥": 77,
      "¦": 78,
      "§": 79,
      "¨": 80,
      "©": 81,
      "ª": 82,
      "«": 83,
      "¬": 84,
      "®": 85,
      "¯": 86,
      "°": 87,
      "±": 88,
      "²": 89,
      "³": 90,
      "´": 91,
      "µ": 92,
      "·": 93,
      "¸": 94,
      "¹": 95,
      "º": 96,
      "»": 97,
      "¼": 98,
      "½": 99,
      "¾": 100,
      "¿": 101,
      "×": 102,
      "ß": 103,
      "æ": 104,
      "ð": 105,
      "÷": 106,
      "ø": 107,
      "þ": 108,
      "đ": 109,
      "ı": 110,
      "ł": 111,
      "œ": 112,
      "ƞ": 113,
      "ƽ": 114,
      "ə": 115,
      "ɛ": 116,
      "ɱ": 117,
      "ʒ": 118,
      "ʫ": 119,
      "ʲ": 120,
      "ʽ": 121,
      "ʿ": 122,
      "ˆ": 123,
      "˜": 124,
      "ˮ": 125,
      "ͼ": 126,
      "α": 127,
      "β": 128,
      "γ": 129,
      "δ": 130,
      "ε": 131,
      "ζ": 132,
      "η": 133,
      "θ": 134,
      "ι": 135,
      "κ": 136,
      "λ": 137,
      "μ": 138,
      "ν": 139,
      "ξ": 140,
      "ο": 141,
      "π": 142,
      "ρ": 143,
      "ς": 144,
      "σ": 145,
      "τ": 146,
      "υ": 147,
      "φ": 148,
      "χ": 149,
      "ψ": 150,
      "ω": 151,
      "ϕ": 152,
      "а": 153,
      "б": 154,
      "в": 155,
      "г": 156,
      "д": 157,
      "е": 158,
      "ж": 159,
      "з": 160,
      "и": 161,
      "к": 162,
      "л": 163,
      "м": 164,
      "н": 165,
      "о": 166,
      "п": 167,
      "р": 168,
      "с": 169,
      "т": 170,
      "у": 171,
      "ф": 172,
      "х": 173,
      "ц": 174,
      "ч": 175,
      "ш": 176,
      "щ": 177,
      "ъ": 178,
      "ы": 179,
      "ь": 180,
      "э": 181,
      "ю": 182,
      "я": 183,
      "і": 184,
      "ј": 185,
      "ћ": 186,
      "һ": 187,
      "ө": 188,
      "ա": 189,
      "ն": 190,
      "ո": 191,
      "վ": 192,
      "ր": 193,
      "־": 194,
      "׀": 195,
      "׃": 196,
      "א": 197,
      "ב": 198,
      "ג": 199,
      "ד": 200,
      "ה": 201,
      "ו": 202,
      "ז": 203,
      "ח": 204,
      "ט": 205,
      "י": 206,
      "ך": 207,
      "כ": 208,
      "ל": 209,
      "ם": 210,
      "מ": 211,
      "ן": 212,
      "נ": 213,
      "ס": 214,
      "ע": 215,
      "ף": 216,
      "פ": 217,
      "ץ": 218,
      "צ": 219,
      "ק": 220,
      "ר": 221,
      "ש": 222,
      "ת": 223,
      "װ": 224,
      "ױ": 225,
      "ײ": 226,
      "׳": 227,
      "״": 228,
      "׼": 229,
      "،": 230,
      "ء": 231,
      "ا": 232,
      "ب": 233,
      "ة": 234,
      "ت": 235,
      "ث": 236,
      "ج": 237,
      "ح": 238,
      "خ": 239,
      "د": 240,
      "ذ": 241,
      "ر": 242,
      "ز": 243,
      "س": 244,
      "ش": 245,
      "ص": 246,
      "ض": 247,
      "ط": 248,
      "ظ": 249,
      "ع": 250,
      "غ": 251,
      "ـ": 252,
      "ف": 253,
      "ق": 254,
      "ك": 255,
      "ل": 256,
      "م": 257,
      "ن": 258,
      "ه": 259,
      "و": 260,
      "ى": 261,
      "ي": 262,
      "٠": 263,
      "پ": 264,
      "چ": 265,
      "ک": 266,
      "گ": 267,
      "ی": 268,
      "܂": 269,
      "अ": 270,
      "आ": 271,
      "इ": 272,
      "ए": 273,
      "क": 274,
      "ख": 275,
      "ग": 276,
      "च": 277,
      "ज": 278,
      "ट": 279,
      "ठ": 280,
      "ड": 281,
      "ढ": 282,
      "ण": 283,
      "त": 284,
      "थ": 285,
      "द": 286,
      "ध": 287,
      "न": 288,
      "प": 289,
      "फ": 290,
      "ब": 291,
      "भ": 292,
      "म": 293,
      "य": 294,
      "र": 295,
      "ल": 296,
      "ळ": 297,
      "व": 298,
      "श": 299,
      "ष": 300,
      "स": 301,
      "ह": 302,
      "ा": 303,
      "ि": 304,
      "ी": 305,
      "ो": 306,
      "०": 307,
      "१": 308,
      "२": 309,
      "७": 310,
      "८": 311,
      "ক": 312,
      "ত": 313,
      "ন": 314,
      "ব": 315,
      "র": 316,
      "া": 317,
      "ি": 318,
      "ে": 319,
      "க": 320,
      "த": 321,
      "ம": 322,
      "ா": 323,
      "ி": 324,
      "ு": 325,
      "ก": 326,
      "ข": 327,
      "ค": 328,
      "ง": 329,
      "จ": 330,
      "ช": 331,
      "ด": 332,
      "ต": 333,
      "ท": 334,
      "น": 335,
      "บ": 336,
      "ป": 337,
      "พ": 338,
      "ม": 339,
      "ย": 340,
      "ร": 341,
      "ล": 342,
      "ว": 343,
      "ส": 344,
      "ห": 345,
      "อ": 346,
      "ะ": 347,
      "า": 348,
      "ำ": 349,
      "เ": 350,
      "แ": 351,
      "โ": 352,
      "ใ": 353,
      "ไ": 354,
      "་": 355,
      "ა": 356,
      "ბ": 357,
      "გ": 358,
      "დ": 359,
      "ე": 360,
      "ვ": 361,
      "თ": 362,
      "ი": 363,
      "ლ": 364,
      "მ": 365,
      "ნ": 366,
      "ო": 367,
      "პ": 368,
      "რ": 369,
      "ს": 370,
      "ტ": 371,
      "უ": 372,
      "შ": 373,
      "ხ": 374,
      "ᄀ": 375,
      "ᄂ": 376,
      "ᄃ": 377,
      "ᄅ": 378,
      "ᄆ": 379,
      "ᄇ": 380,
      "ᄉ": 381,
      "ᄋ": 382,
      "ᄌ": 383,
      "ᄎ": 384,
      "ᄏ": 385,
      "ᄐ": 386,
      "ᄑ": 387,
      "ᄒ": 388,
      "ᅡ": 389,
      "ᅢ": 390,
      "ᅥ": 391,
      "ᅦ": 392,
      "ᅧ": 393,
      "ᅩ": 394,
      "ᅪ": 395,
      "ᅭ": 396,
      "ᅮ": 397,
      "ᅯ": 398,
      "ᅳ": 399,
      "ᅵ": 400,
      "ᆨ": 401,
      "ᆫ": 402,
      "ᆯ": 403,
      "ᆷ": 404,
      "ᆸ": 405,
      "ᆼ": 406,
      "‑": 407,
      "‒": 408,
      "–": 409,
      "—": 410,
      "―": 411,
      "‘": 412,
      "’": 413,
      "‚": 414,
      "“": 415,
      "”": 416,
      "„": 417,
      "†": 418,
      "‡": 419,
      "•": 420,
      "…": 421,
      "′": 422,
      "″": 423,
      "›": 424,
      "⁻": 425,
      "₪": 426,
      "€": 427,
      "℃": 428,
      "™": 429,
      "←": 430,
      "↑": 431,
      "→": 432,
      "↔": 433,
      "↩": 434,
      "∈": 435,
      "−": 436,
      "√": 437,
      "∞": 438,
      "≤": 439,
      "≥": 440,
      "⋅": 441,
      "─": 442,
      "■": 443,
      "▪": 444,
      "▲": 445,
      "▼": 446,
      "▾": 447,
      "◄": 448,
      "◆": 449,
      "◊": 450,
      "●": 451,
      "★": 452,
      "☆": 453,
      "☎": 454,
      "☚": 455,
      "☺": 456,
      "♠": 457,
      "♡": 458,
      "♣": 459,
      "♥": 460,
      "♦": 461,
      "✈": 462,
      "✓": 463,
      "✔": 464,
      "✡": 465,
      "✨": 466,
      "❤": 467,
      "➖": 468,
      "⠀": 469,
      "、": 470,
      "。": 471,
      "《": 472,
      "》": 473,
      "「": 474,
      "」": 475,
      "【": 476,
      "】": 477,
      "〡": 478,
      "あ": 479,
      "い": 480,
      "う": 481,
      "え": 482,
      "お": 483,
      "か": 484,
      "き": 485,
      "く": 486,
      "け": 487,
      "こ": 488,
      "さ": 489,
      "し": 490,
      "す": 491,
      "せ": 492,
      "そ": 493,
      "た": 494,
      "ち": 495,
      "っ": 496,
      "つ": 497,
      "て": 498,
      "と": 499,
      "な": 500,
      "に": 501,
      "の": 502,
      "は": 503,
      "へ": 504,
      "ま": 505,
      "み": 506,
      "め": 507,
      "も": 508,
      "や": 509,
      "よ": 510,
      "ら": 511,
      "り": 512,
      "る": 513,
      "れ": 514,
      "わ": 515,
      "を": 516,
      "ん": 517,
      "ア": 518,
      "ィ": 519,
      "イ": 520,
      "ウ": 521,
      "ェ": 522,
      "エ": 523,
      "オ": 524,
      "カ": 525,
      "キ": 526,
      "ク": 527,
      "ケ": 528,
      "コ": 529,
      "サ": 530,
      "シ": 531,
      "ス": 532,
      "セ": 533,
      "ソ": 534,
      "タ": 535,
      "チ": 536,
      "ッ": 537,
      "ツ": 538,
      "テ": 539,
      "ト": 540,
      "ナ": 541,
      "ニ": 542,
      "ネ": 543,
      "ハ": 544,
      "ヒ": 545,
      "フ": 546,
      "ヘ": 547,
      "ホ": 548,
      "マ": 549,
      "ミ": 550,
      "ム": 551,
      "メ": 552,
      "モ": 553,
      "ャ": 554,
      "ュ": 555,
      "ョ": 556,
      "ラ": 557,
      "リ": 558,
      "ル": 559,
      "レ": 560,
      "ロ": 561,
      "ワ": 562,
      "ン": 563,
      "・": 564,
      "ー": 565,
      "一": 566,
      "万": 567,
      "三": 568,
      "上": 569,
      "下": 570,
      "不": 571,
      "与": 572,
      "专": 573,
      "世": 574,
      "业": 575,
      "东": 576,
      "个": 577,
      "中": 578,
      "为": 579,
      "主": 580,
      "么": 581,
      "之": 582,
      "乐": 583,
      "九": 584,
      "也": 585,
      "了": 586,
      "争": 587,
      "事": 588,
      "二": 589,
      "于": 590,
      "五": 591,
      "亚": 592,
      "交": 593,
      "产": 594,
      "京": 595,
      "人": 596,
      "今": 597,
      "他": 598,
      "仙": 599,
      "代": 600,
      "以": 601,
      "们": 602,
      "件": 603,
      "任": 604,
      "企": 605,
      "优": 606,
      "会": 607,
      "位": 608,
      "体": 609,
      "何": 610,
      "作": 611,
      "你": 612,
      "使": 613,
      "供": 614,
      "保": 615,
      "信": 616,
      "元": 617,
      "先": 618,
      "光": 619,
      "免": 620,
      "入": 621,
      "全": 622,
      "公": 623,
      "六": 624,
      "关": 625,
      "其": 626,
      "具": 627,
      "内": 628,
      "円": 629,
      "册": 630,
      "写": 631,
      "冰": 632,
      "准": 633,
      "出": 634,
      "分": 635,
      "创": 636,
      "利": 637,
      "到": 638,
      "制": 639,
      "前": 640,
      "力": 641,
      "加": 642,
      "务": 643,
      "动": 644,
      "势": 645,
      "動": 646,
      "化": 647,
      "北": 648,
      "区": 649,
      "十": 650,
      "华": 651,
      "南": 652,
      "博": 653,
      "厅": 654,
      "原": 655,
      "去": 656,
      "县": 657,
      "及": 658,
      "发": 659,
      "取": 660,
      "受": 661,
      "口": 662,
      "可": 663,
      "台": 664,
      "号": 665,
      "司": 666,
      "各": 667,
      "合": 668,
      "同": 669,
      "名": 670,
      "后": 671,
      "向": 672,
      "吗": 673,
      "吧": 674,
      "员": 675,
      "和": 676,
      "品": 677,
      "商": 678,
      "器": 679,
      "四": 680,
      "回": 681,
      "国": 682,
      "图": 683,
      "在": 684,
      "地": 685,
      "场": 686,
      "址": 687,
      "坛": 688,
      "型": 689,
      "城": 690,
      "基": 691,
      "堂": 692,
      "場": 693,
      "处": 694,
      "备": 695,
      "外": 696,
      "多": 697,
      "大": 698,
      "天": 699,
      "太": 700,
      "奖": 701,
      "女": 702,
      "好": 703,
      "如": 704,
      "娱": 705,
      "子": 706,
      "字": 707,
      "学": 708,
      "宁": 709,
      "安": 710,
      "官": 711,
      "定": 712,
      "宝": 713,
      "实": 714,
      "客": 715,
      "室": 716,
      "家": 717,
      "容": 718,
      "富": 719,
      "对": 720,
      "将": 721,
      "小": 722,
      "少": 723,
      "就": 724,
      "尺": 725,
      "展": 726,
      "山": 727,
      "島": 728,
      "川": 729,
      "州": 730,
      "工": 731,
      "市": 732,
      "布": 733,
      "常": 734,
      "平": 735,
      "年": 736,
      "广": 737,
      "库": 738,
      "应": 739,
      "店": 740,
      "度": 741,
      "建": 742,
      "开": 743,
      "式": 744,
      "强": 745,
      "当": 746,
      "彩": 747,
      "影": 748,
      "很": 749,
      "律": 750,
      "得": 751,
      "心": 752,
      "快": 753,
      "怎": 754,
      "思": 755,
      "性": 756,
      "息": 757,
      "情": 758,
      "想": 759,
      "意": 760,
      "感": 761,
      "成": 762,
      "我": 763,
      "户": 764,
      "所": 765,
      "手": 766,
      "打": 767,
      "技": 768,
      "投": 769,
      "报": 770,
      "拍": 771,
      "持": 772,
      "指": 773,
      "接": 774,
      "推": 775,
      "提": 776,
      "播": 777,
      "政": 778,
      "教": 779,
      "数": 780,
      "文": 781,
      "料": 782,
      "斯": 783,
      "新": 784,
      "方": 785,
      "无": 786,
      "日": 787,
      "时": 788,
      "明": 789,
      "星": 790,
      "是": 791,
      "時": 792,
      "更": 793,
      "最": 794,
      "月": 795,
      "有": 796,
      "服": 797,
      "期": 798,
      "木": 799,
      "本": 800,
      "术": 801,
      "机": 802,
      "李": 803,
      "来": 804,
      "東": 805,
      "极": 806,
      "林": 807,
      "果": 808,
      "校": 809,
      "格": 810,
      "業": 811,
      "模": 812,
      "次": 813,
      "欧": 814,
      "正": 815,
      "比": 816,
      "民": 817,
      "気": 818,
      "水": 819,
      "永": 820,
      "求": 821,
      "江": 822,
      "沙": 823,
      "河": 824,
      "治": 825,
      "法": 826,
      "注": 827,
      "洲": 828,
      "活": 829,
      "流": 830,
      "海": 831,
      "清": 832,
      "温": 833,
      "港": 834,
      "游": 835,
      "源": 836,
      "澳": 837,
      "点": 838,
      "然": 839,
      "照": 840,
      "爱": 841,
      "片": 842,
      "版": 843,
      "牌": 844,
      "物": 845,
      "特": 846,
      "王": 847,
      "玩": 848,
      "现": 849,
      "球": 850,
      "理": 851,
      "生": 852,
      "用": 853,
      "田": 854,
      "由": 855,
      "电": 856,
      "画": 857,
      "界": 858,
      "疆": 859,
      "白": 860,
      "百": 861,
      "的": 862,
      "皇": 863,
      "盘": 864,
      "目": 865,
      "直": 866,
      "相": 867,
      "省": 868,
      "看": 869,
      "県": 870,
      "真": 871,
      "着": 872,
      "知": 873,
      "码": 874,
      "研": 875,
      "示": 876,
      "社": 877,
      "神": 878,
      "票": 879,
      "福": 880,
      "私": 881,
      "种": 882,
      "科": 883,
      "程": 884,
      "空": 885,
      "立": 886,
      "站": 887,
      "章": 888,
      "第": 889,
      "等": 890,
      "算": 891,
      "管": 892,
      "精": 893,
      "系": 894,
      "红": 895,
      "级": 896,
      "线": 897,
      "经": 898,
      "结": 899,
      "统": 900,
      "网": 901,
      "美": 902,
      "老": 903,
      "者": 904,
      "而": 905,
      "肖": 906,
      "育": 907,
      "胆": 908,
      "能": 909,
      "自": 910,
      "舆": 911,
      "舑": 912,
      "色": 913,
      "艺": 914,
      "花": 915,
      "行": 916,
      "表": 917,
      "装": 918,
      "西": 919,
      "要": 920,
      "规": 921,
      "解": 922,
      "計": 923,
      "語": 924,
      "计": 925,
      "记": 926,
      "论": 927,
      "设": 928,
      "说": 929,
      "财": 930,
      "费": 931,
      "资": 932,
      "赌": 933,
      "走": 934,
      "起": 935,
      "超": 936,
      "足": 937,
      "路": 938,
      "身": 939,
      "车": 940,
      "过": 941,
      "运": 942,
      "近": 943,
      "这": 944,
      "进": 945,
      "送": 946,
      "通": 947,
      "速": 948,
      "道": 949,
      "部": 950,
      "都": 951,
      "酒": 952,
      "里": 953,
      "重": 954,
      "量": 955,
      "金": 956,
      "钱": 957,
      "长": 958,
      "間": 959,
      "门": 960,
      "间": 961,
      "阳": 962,
      "阴": 963,
      "际": 964,
      "限": 965,
      "院": 966,
      "集": 967,
      "電": 968,
      "霸": 969,
      "青": 970,
      "面": 971,
      "音": 972,
      "项": 973,
      "食": 974,
      "餐": 975,
      "香": 976,
      "马": 977,
      "高": 978,
      "鱼": 979,
      "鲍": 980,
      "黄": 981,
      "龙": 982,
      "ﬠ": 983,
      "！": 984,
      "（": 985,
      "）": 986,
      "，": 987,
      "：": 988,
      "；": 989,
      "？": 990,
      "￼": 991,
      "👍": 992,
      "👶": 993,
      "💐": 994,
      "💩": 995,
      "💪": 996,
      "😀": 997,
      "😂": 998,
      "😉": 999,
      "😊": 1000,
      "😍": 1001,
      "🙂": 1002,
      "🙏": 1003,
      "🤣": 1004,
      "##ש": 1005,
      "##מ": 1006,
      "##ס": 1007,
      "##ו": 1008,
      "##ב": 1009,
      "##ט": 1010,
      "##ר": 1011,
      "##י": 1012,
      "##ה": 1013,
      "##נ": 1014,
      "##צ": 1015,
      "##ג": 1016,
      "##א": 1017,
      "##ע": 1018,
      "##ת": 1019,
      "##و": 1020,
      "##ا": 1021,
      "##ع": 1022,
      "##د": 1023,
      "##o": 1024,
      "##r": 1025,
      "##s": 1026,
      "##d": 1027,
      "##y": 1028,
      "##l": 1029,
      "##ח": 1030,
      "##ק": 1031,
      "##i": 1032,
      "##b": 1033,
      "##c": 1034,
      "##a": 1035,
      "##ל": 1036,
      "##פ": 1037,
      "##e": 1038,
      "##n": 1039,
      "##0": 1040,
      "##1": 1041,
      "##3": 1042,
      "##7": 1043,
      "##8": 1044,
      "##ד": 1045,
      "##ם": 1046,
      "##ك": 1047,
      "##ر": 1048,
      "##ي": 1049,
      "##س": 1050,
      "##4": 1051,
      "##5": 1052,
      "##x": 1053,
      "##p": 1054,
      "##f": 1055,
      "##ז": 1056,
      "##ן": 1057,
      "##9": 1058,
      "##6": 1059,
      "##2": 1060,
      "##m": 1061,
      "##v": 1062,
      "##t": 1063,
      "##g": 1064,
      "##h": 1065,
      "##כ": 1066,
      "##k": 1067,
      "##u": 1068,
      "##т": 1069,
      "##р": 1070,
      "##е": 1071,
      "##м": 1072,
      "##и": 1073,
      "##л": 1074,
      "##ь": 1075,
      "##н": 1076,
      "##о": 1077,
      "##с": 1078,
      "##ン": 1079,
      "##ף": 1080,
      "##を": 1081,
      "##し": 1082,
      "##て": 1083,
      "##ך": 1084,
      "##ス": 1085,
      "##ミ": 1086,
      "##υ": 1087,
      "##ν": 1088,
      "##τ": 1089,
      "##ρ": 1090,
      "##ο": 1091,
      "##φ": 1092,
      "##ς": 1093,
      "##j": 1094,
      "##w": 1095,
      "##а": 1096,
      "##к": 1097,
      "##э": 1098,
      "##в": 1099,
      "##д": 1100,
      "##я": 1101,
      "##z": 1102,
      "##ﬠ": 1103,
      "##²": 1104,
      "##ш": 1105,
      "##б": 1106,
      "##サ": 1107,
      "##ル": 1108,
      "##テ": 1109,
      "##ィ": 1110,
      "##ク": 1111,
      "##ץ": 1112,
      "##ل": 1113,
      "##ف": 1114,
      "##q": 1115,
      "##г": 1116,
      "##у": 1117,
      "##ы": 1118,
      "##ч": 1119,
      "##ه": 1120,
      "##ц": 1121,
      "##व": 1122,
      "##त": 1123,
      "##च": 1124,
      "##´": 1125,
      "##の": 1126,
      "##は": 1127,
      "##な": 1128,
      "##い": 1129,
      "##か": 1130,
      "##と": 1131,
      "##っ": 1132,
      "##よ": 1133,
      "##く": 1134,
      "##わ": 1135,
      "##ら": 1136,
      "##た": 1137,
      "##す": 1138,
      "##п": 1139,
      "##▲": 1140,
      "##ᅢ": 1141,
      "##һ": 1142,
      "##ф": 1143,
      "##°": 1144,
      "##і": 1145,
      "##エ": 1146,
      "##リ": 1147,
      "##オ": 1148,
      "##ت": 1149,
      "##م": 1150,
      "##ح": 1151,
      "##ج": 1152,
      "##ز": 1153,
      "##ة": 1154,
      "##ж": 1155,
      "##ん": 1156,
      "##ま": 1157,
      "##👍": 1158,
      "##ط": 1159,
      "##ن": 1160,
      "##☺": 1161,
      "##イ": 1162,
      "##ト": 1163,
      "##チ": 1164,
      "##ャ": 1165,
      "##ム": 1166,
      "##×": 1167,
      "##ص": 1168,
      "##ش": 1169,
      "##ء": 1170,
      "##ı": 1171,
      "##ᅡ": 1172,
      "##ᄋ": 1173,
      "##ᅵ": 1174,
      "##ᄏ": 1175,
      "##ᅳ": 1176,
      "##ᄅ": 1177,
      "##ᅩ": 1178,
      "##ᅥ": 1179,
      "##ᆫ": 1180,
      "##ᄃ": 1181,
      "##ᆯ": 1182,
      "##म": 1183,
      "##α": 1184,
      "##γ": 1185,
      "##ω": 1186,
      "##ب": 1187,
      "##з": 1188,
      "##→": 1189,
      "##ᄆ": 1190,
      "##ᅮ": 1191,
      "##ᄑ": 1192,
      "##ᄌ": 1193,
      "##る": 1194,
      "##こ": 1195,
      "##ニ": 1196,
      "##บ": 1197,
      "##อ": 1198,
      "##ล": 1199,
      "##า": 1200,
      "##น": 1201,
      "##เ": 1202,
      "##ต": 1203,
      "##ł": 1204,
      "##ض": 1205,
      "##щ": 1206,
      "##ท": 1207,
      "##ร": 1208,
      "##خ": 1209,
      "##ـ": 1210,
      "##€": 1211,
      "##⁻": 1212,
      "##ی": 1213,
      "##ə": 1214,
      "##ß": 1215,
      "##ι": 1216,
      "##ा": 1217,
      "##ज": 1218,
      "##ो": 1219,
      "##ल": 1220,
      "##х": 1221,
      "##う": 1222,
      "##¸": 1223,
      "##ю": 1224,
      "##ᅦ": 1225,
      "##װ": 1226,
      "##đ": 1227,
      "##ᄀ": 1228,
      "##ᄉ": 1229,
      "##ᆼ": 1230,
      "##ᄒ": 1231,
      "##ᅪ": 1232,
      "##ک": 1233,
      "##ᆨ": 1234,
      "##ᄂ": 1235,
      "##ᅭ": 1236,
      "##￼": 1237,
      "##®": 1238,
      "##ᄇ": 1239,
      "##お": 1240,
      "##₪": 1241,
      "##ट": 1242,
      "##य": 1243,
      "##ब": 1244,
      "##ʽ": 1245,
      "##ʒ": 1246,
      "##ி": 1247,
      "##™": 1248,
      "##æ": 1249,
      "##θ": 1250,
      "##μ": 1251,
      "##λ": 1252,
      "##ø": 1253,
      "##ײ": 1254,
      "##り": 1255,
      "##せ": 1256,
      "##¯": 1257,
      "##µ": 1258,
      "##れ": 1259,
      "##も": 1260,
      "##さ": 1261,
      "##া": 1262,
      "##π": 1263,
      "##☆": 1264,
      "##−": 1265,
      "##χ": 1266,
      "##へ": 1267,
      "##র": 1268,
      "##ব": 1269,
      "##ক": 1270,
      "##ে": 1271,
      "##←": 1272,
      "##©": 1273,
      "##ち": 1274,
      "##ヘ": 1275,
      "##フ": 1276,
      "##ー": 1277,
      "##ヒ": 1278,
      "##ッ": 1279,
      "##タ": 1280,
      "##ு": 1281,
      "##த": 1282,
      "##க": 1283,
      "##ラ": 1284,
      "##ε": 1285,
      "##σ": 1286,
      "##η": 1287,
      "##ใ": 1288,
      "##ช": 1289,
      "##พ": 1290,
      "##ง": 1291,
      "##ห": 1292,
      "##ก": 1293,
      "##ด": 1294,
      "##ป": 1295,
      "##ะ": 1296,
      "##ส": 1297,
      "##ソ": 1298,
      "##κ": 1299,
      "##つ": 1300,
      "##ͼ": 1301,
      "##ق": 1302,
      "##メ": 1303,
      "##に": 1304,
      "##ى": 1305,
      "##گ": 1306,
      "##♥": 1307,
      "##٠": 1308,
      "##レ": 1309,
      "##ว": 1310,
      "##ำ": 1311,
      "##ᆸ": 1312,
      "##½": 1313,
      "##け": 1314,
      "##ᄎ": 1315,
      "##ა": 1316,
      "##ტ": 1317,
      "##¬": 1318,
      "##र": 1319,
      "##ハ": 1320,
      "##め": 1321,
      "##δ": 1322,
      "##カ": 1323,
      "##ย": 1324,
      "##न": 1325,
      "##ˮ": 1326,
      "##■": 1327,
      "##ม": 1328,
      "##แ": 1329,
      "##ƞ": 1330,
      "##ไ": 1331,
      "##โ": 1332,
      "##ホ": 1333,
      "##ツ": 1334,
      "##ᄐ": 1335,
      "##キ": 1336,
      "##ア": 1337,
      "##ъ": 1338,
      "##ი": 1339,
      "##▪": 1340,
      "##モ": 1341,
      "##マ": 1342,
      "##ா": 1343,
      "##ड": 1344,
      "##ह": 1345,
      "##ण": 1346,
      "##მ": 1347,
      "##ე": 1348,
      "##უ": 1349,
      "##რ": 1350,
      "##ნ": 1351,
      "##ო": 1352,
      "##ث": 1353,
      "##セ": 1354,
      "##コ": 1355,
      "##ネ": 1356,
      "##վ": 1357,
      "##غ": 1358,
      "##ワ": 1359,
      "##シ": 1360,
      "##ᅯ": 1361,
      "##ᅧ": 1362,
      "##ˆ": 1363,
      "##◄": 1364,
      "##ლ": 1365,
      "##ბ": 1366,
      "##ს": 1367,
      "##ত": 1368,
      "##≥": 1369,
      "##ョ": 1370,
      "##इ": 1371,
      "##स": 1372,
      "##ظ": 1373,
      "##¼": 1374,
      "##º": 1375,
      "##შ": 1376,
      "##そ": 1377,
      "##ذ": 1378,
      "##ᆷ": 1379,
      "##ա": 1380,
      "##ր": 1381,
      "##ն": 1382,
      "##फ": 1383,
      "##£": 1384,
      "##🙏": 1385,
      "##გ": 1386,
      "##þ": 1387,
      "##¾": 1388,
      "##ð": 1389,
      "##थ": 1390,
      "##ि": 1391,
      "##भ": 1392,
      "##ग": 1393,
      "##ค": 1394,
      "##ћ": 1395,
      "##や": 1396,
      "##み": 1397,
      "##ʲ": 1398,
      "##β": 1399,
      "##ո": 1400,
      "##प": 1401,
      "##ロ": 1402,
      "##ュ": 1403,
      "##ナ": 1404,
      "##ζ": 1405,
      "##ம": 1406,
      "##❤": 1407,
      "##ウ": 1408,
      "##💐": 1409,
      "##😍": 1410,
      "##ी": 1411,
      "##あ": 1412,
      "##🙂": 1413,
      "##¥": 1414,
      "##ვ": 1415,
      "##ª": 1416,
      "##ি": 1417,
      "##↑": 1418,
      "##ξ": 1419,
      "##ळ": 1420,
      "##😂": 1421,
      "##ए": 1422,
      "##आ": 1423,
      "##چ": 1424,
      "##ƽ": 1425,
      "##🤣": 1426,
      "##●": 1427,
      "##ข": 1428,
      "##¨": 1429,
      "##จ": 1430,
      "##♡": 1431,
      "##😉": 1432,
      "##ェ": 1433,
      "##¢": 1434,
      "##क": 1435,
      "##ন": 1436,
      "##ױ": 1437,
      "##پ": 1438,
      "##०": 1439,
      "##ψ": 1440,
      "##׼": 1441,
      "##♦": 1442,
      "##დ": 1443,
      "##द": 1444,
      "##😊": 1445,
      "##ɱ": 1446,
      "##³": 1447,
      "##ө": 1448,
      "##अ": 1449,
      "##श": 1450,
      "##˜": 1451,
      "##ケ": 1452,
      "##ʫ": 1453,
      "##⠀": 1454,
      "##¤": 1455,
      "##♠": 1456,
      "##ध": 1457,
      "##え": 1458,
      "##¹": 1459,
      "##き": 1460,
      "##😀": 1461,
      "##œ": 1462,
      "##ठ": 1463,
      "##პ": 1464,
      "##२": 1465,
      "##─": 1466,
      "##ʿ": 1467,
      "##≤": 1468,
      "##თ": 1469,
      "##ხ": 1470,
      "##ष": 1471,
      "##✔": 1472,
      "##¦": 1473,
      "##♣": 1474,
      "##÷": 1475,
      "##±": 1476,
      "##ј": 1477,
      "##७": 1478,
      "##★": 1479,
      "##✡": 1480,
      "##℃": 1481,
      "##▼": 1482,
      "##ढ": 1483,
      "##✨": 1484,
      "##∞": 1485,
      "##ɛ": 1486,
      "##ख": 1487,
      "##💪": 1488,
      "##ϕ": 1489,
      "##√": 1490,
      "##१": 1491,
      "##८": 1492,
      "##💩": 1493,
      "##◊": 1494,
      "##◆": 1495,
      "##👶": 1496,
      "##☎": 1497,
      "##✈": 1498,
      "##∈": 1499,
      "##▾": 1500,
      "##✓": 1501,
      "##〡": 1502,
      "##⋅": 1503,
      "##➖": 1504,
      "##ים": 1505,
      "##ות": 1506,
      "##ור": 1507,
      "##ני": 1508,
      "##ול": 1509,
      "של": 1510,
      "##ית": 1511,
      "##יר": 1512,
      "המ": 1513,
      "##ון": 1514,
      "##וב": 1515,
      "##וד": 1516,
      "את": 1517,
      "##לי": 1518,
      "##נו": 1519,
      "##רי": 1520,
      "##יה": 1521,
      "##נה": 1522,
      "##יל": 1523,
      "##ין": 1524,
      "##בר": 1525,
      "לה": 1526,
      "לא": 1527,
      "##וא": 1528,
      "##ומ": 1529,
      "##שר": 1530,
      "##יו": 1531,
      "על": 1532,
      "הא": 1533,
      "##ופ": 1534,
      "##יב": 1535,
      "##די": 1536,
      "במ": 1537,
      "##תי": 1538,
      "##מו": 1539,
      "##רו": 1540,
      "##נים": 1541,
      "הש": 1542,
      "##יות": 1543,
      "##יד": 1544,
      "##יע": 1545,
      "##ום": 1546,
      "##וס": 1547,
      "##כל": 1548,
      "##יש": 1549,
      "##יא": 1550,
      "##יק": 1551,
      "וה": 1552,
      "##נות": 1553,
      "הח": 1554,
      "למ": 1555,
      "##וק": 1556,
      "הע": 1557,
      "##פר": 1558,
      "הת": 1559,
      "בא": 1560,
      "##וע": 1561,
      "##וג": 1562,
      "מש": 1563,
      "בע": 1564,
      "שה": 1565,
      "##לה": 1566,
      "או": 1567,
      "מה": 1568,
      "##מה": 1569,
      "##וח": 1570,
      "##רא": 1571,
      "##וש": 1572,
      "מח": 1573,
      "##דר": 1574,
      "##לא": 1575,
      "הוא": 1576,
      "##וצ": 1577,
      "מס": 1578,
      "##נת": 1579,
      "אח": 1580,
      "##יים": 1581,
      "כל": 1582,
      "##רים": 1583,
      "##יט": 1584,
      "##אל": 1585,
      "##רב": 1586,
      "##יפ": 1587,
      "מא": 1588,
      "ומ": 1589,
      "בש": 1590,
      "הב": 1591,
      "##יס": 1592,
      "וא": 1593,
      "##ימ": 1594,
      "הק": 1595,
      "##רכ": 1596,
      "מע": 1597,
      "##טר": 1598,
      "עם": 1599,
      "יש": 1600,
      "##בל": 1601,
      "הס": 1602,
      "מת": 1603,
      "לע": 1604,
      "##ינ": 1605,
      "##יצ": 1606,
      "זה": 1607,
      "הפ": 1608,
      "בה": 1609,
      "וב": 1610,
      "בת": 1611,
      "##שה": 1612,
      "הג": 1613,
      "לפ": 1614,
      "לב": 1615,
      "##וו": 1616,
      "שמ": 1617,
      "לש": 1618,
      "##רח": 1619,
      "אל": 1620,
      "##יכ": 1621,
      "הה": 1622,
      "##רת": 1623,
      "##זה": 1624,
      "##מש": 1625,
      "##וכ": 1626,
      "שא": 1627,
      "שב": 1628,
      "##יח": 1629,
      "הצ": 1630,
      "##ינו": 1631,
      "גם": 1632,
      "מק": 1633,
      "הכ": 1634,
      "כי": 1635,
      "##שים": 1636,
      "הנ": 1637,
      "##רג": 1638,
      "##רה": 1639,
      "לח": 1640,
      "בח": 1641,
      "אות": 1642,
      "##וט": 1643,
      "##מת": 1644,
      "##דים": 1645,
      "##וי": 1646,
      "##שת": 1647,
      "##בע": 1648,
      "##שראל": 1649,
      "##נית": 1650,
      "ול": 1651,
      "##נס": 1652,
      "מחיר": 1653,
      "מפ": 1654,
      "לק": 1655,
      "בין": 1656,
      "##לים": 1657,
      "##חר": 1658,
      "##ירות": 1659,
      "מצ": 1660,
      "##ורה": 1661,
      "וע": 1662,
      "##דה": 1663,
      "##עות": 1664,
      "מב": 1665,
      "הד": 1666,
      "היא": 1667,
      "##לק": 1668,
      "לכ": 1669,
      "##בוד": 1670,
      "##את": 1671,
      "המש": 1672,
      "בס": 1673,
      "מחירון": 1674,
      "##עת": 1675,
      "בפ": 1676,
      "##ירה": 1677,
      "##וז": 1678,
      "בק": 1679,
      "היה": 1680,
      "##בי": 1681,
      "מכ": 1682,
      "##ותר": 1683,
      "##מי": 1684,
      "##נט": 1685,
      "##ולם": 1686,
      "##מים": 1687,
      "##חת": 1688,
      "##מן": 1689,
      "##בים": 1690,
      "מי": 1691,
      "20": 1692,
      "##עה": 1693,
      "##רט": 1694,
      "##אי": 1695,
      "##ונה": 1696,
      "##יום": 1697,
      "##וף": 1698,
      "##מצ": 1699,
      "##וני": 1700,
      "##יעה": 1701,
      "הי": 1702,
      "הר": 1703,
      "##שי": 1704,
      "וכ": 1705,
      "לת": 1706,
      "##גד": 1707,
      "בר": 1708,
      "##שות": 1709,
      "אם": 1710,
      "כא": 1711,
      "בב": 1712,
      "##פת": 1713,
      "יותר": 1714,
      "##וה": 1715,
      "##ובים": 1716,
      "##חה": 1717,
      "לי": 1718,
      "##ונ": 1719,
      "##רות": 1720,
      "##לת": 1721,
      "##ונים": 1722,
      "אני": 1723,
      "##סק": 1724,
      "הז": 1725,
      "ישראל": 1726,
      "אי": 1727,
      "##אה": 1728,
      "##ולה": 1729,
      "אמ": 1730,
      "##פט": 1731,
      "אנ": 1732,
      "##אות": 1733,
      "##פי": 1734,
      "##לב": 1735,
      "##לט": 1736,
      "##ורים": 1737,
      "##פק": 1738,
      "##כה": 1739,
      "בג": 1740,
      "##ראש": 1741,
      "##מות": 1742,
      "בכ": 1743,
      "##לו": 1744,
      "##יג": 1745,
      "##וך": 1746,
      "##דרך": 1747,
      "##חד": 1748,
      "לצ": 1749,
      "##פשר": 1750,
      "הט": 1751,
      "##אים": 1752,
      "##לות": 1753,
      "אב": 1754,
      "אבל": 1755,
      "##ניה": 1756,
      "בית": 1757,
      "לג": 1758,
      "##חק": 1759,
      "מג": 1760,
      "ממ": 1761,
      "רא": 1762,
      "יה": 1763,
      "##כם": 1764,
      "##עים": 1765,
      "עד": 1766,
      "שנ": 1767,
      "מד": 1768,
      "##חות": 1769,
      "##שב": 1770,
      "##קה": 1771,
      "19": 1772,
      "עצ": 1773,
      "רק": 1774,
      "##ולים": 1775,
      "שע": 1776,
      "##דם": 1777,
      "נס": 1778,
      "##כת": 1779,
      "כמו": 1780,
      "##ברה": 1781,
      "בי": 1782,
      "##טי": 1783,
      "##ילה": 1784,
      "פע": 1785,
      "הם": 1786,
      "##יון": 1787,
      "יכ": 1788,
      "##רק": 1789,
      "וש": 1790,
      "כך": 1791,
      "##טוב": 1792,
      "##לול": 1793,
      "בכל": 1794,
      "לו": 1795,
      "אחד": 1796,
      "לס": 1797,
      "##בה": 1798,
      "##בות": 1799,
      "בדרך": 1800,
      "ולא": 1801,
      "להת": 1802,
      "##יתה": 1803,
      "##ובה": 1804,
      "בצ": 1805,
      "##פה": 1806,
      "לד": 1807,
      "##כים": 1808,
      "##דות": 1809,
      "##פים": 1810,
      "##בת": 1811,
      "##מוד": 1812,
      "##ליה": 1813,
      "בד": 1814,
      "הרב": 1815,
      "##נק": 1816,
      "##er": 1817,
      "##לח": 1818,
      "כדי": 1819,
      "##תר": 1820,
      "מרח": 1821,
      "##ומר": 1822,
      "בני": 1823,
      "##אר": 1824,
      "שכ": 1825,
      "##בור": 1826,
      "##יני": 1827,
      "##וגל": 1828,
      "##מר": 1829,
      "##יותר": 1830,
      "##יבה": 1831,
      "לפני": 1832,
      "אשר": 1833,
      "##ילו": 1834,
      "##זור": 1835,
      "##דת": 1836,
      "וח": 1837,
      "חש": 1838,
      "אין": 1839,
      "יצ": 1840,
      "ידי": 1841,
      "בט": 1842,
      "##ברים": 1843,
      "##כות": 1844,
      "##ורת": 1845,
      "בו": 1846,
      "כב": 1847,
      "##כו": 1848,
      "##שו": 1849,
      "תק": 1850,
      "שלא": 1851,
      "##ילומ": 1852,
      "זו": 1853,
      "##תח": 1854,
      "##סט": 1855,
      "במק": 1856,
      "##00": 1857,
      "פר": 1858,
      "חי": 1859,
      "##ירים": 1860,
      "##רך": 1861,
      "חד": 1862,
      "המק": 1863,
      "מסלול": 1864,
      "שק": 1865,
      "אוטוב": 1866,
      "אך": 1867,
      "אוטובוס": 1868,
      "201": 1869,
      "##חים": 1870,
      "לאחר": 1871,
      "גוגל": 1872,
      "נת": 1873,
      "##של": 1874,
      "קר": 1875,
      "##on": 1876,
      "היו": 1877,
      "נסיעה": 1878,
      "##צה": 1879,
      "##חי": 1880,
      "##ורי": 1881,
      "הראש": 1882,
      "גד": 1883,
      "מפות": 1884,
      "קילומ": 1885,
      "מרחק": 1886,
      "##מיד": 1887,
      "##קים": 1888,
      "##פות": 1889,
      "קילומטר": 1890,
      "אותו": 1891,
      "##ווה": 1892,
      "##רץ": 1893,
      "ישובים": 1894,
      "##טים": 1895,
      "##ימו": 1896,
      "וג": 1897,
      "אז": 1898,
      "חבר": 1899,
      "נית": 1900,
      "מז": 1901,
      "##ניות": 1902,
      "##ברי": 1903,
      "##ולי": 1904,
      "##וץ": 1905,
      "עבוד": 1906,
      "##נג": 1907,
      "##יז": 1908,
      "##in": 1909,
      "##יתי": 1910,
      "נוס": 1911,
      "##ישה": 1912,
      "עוד": 1913,
      "ביותר": 1914,
      "##ראה": 1915,
      "##תה": 1916,
      "##ריך": 1917,
      "##ורות": 1918,
      "מדי": 1919,
      "##ונות": 1920,
      "##יקה": 1921,
      "שלה": 1922,
      "##ורך": 1923,
      "##מד": 1924,
      "##רכז": 1925,
      "##עי": 1926,
      "##ופה": 1927,
      "זאת": 1928,
      "אינ": 1929,
      "ות": 1930,
      "##ירת": 1931,
      "להיות": 1932,
      "כת": 1933,
      "בפני": 1934,
      "##מע": 1935,
      "מט": 1936,
      "##שא": 1937,
      "עלי": 1938,
      "נגד": 1939,
      "##כן": 1940,
      "##לך": 1941,
      "##גר": 1942,
      "יכול": 1943,
      "##סת": 1944,
      "בנו": 1945,
      "הזה": 1946,
      "##רצ": 1947,
      "יע": 1948,
      "ראש": 1949,
      "##ילות": 1950,
      "##קות": 1951,
      "שם": 1952,
      "לכל": 1953,
      "##ופן": 1954,
      "##פו": 1955,
      "##ילים": 1956,
      "המע": 1957,
      "##חנו": 1958,
      "שני": 1959,
      "המח": 1960,
      "מאוד": 1961,
      "פי": 1962,
      "אפ": 1963,
      "##סים": 1964,
      "##ופט": 1965,
      "##וות": 1966,
      "##ומי": 1967,
      "##צוע": 1968,
      "##נד": 1969,
      "##ובר": 1970,
      "##ar": 1971,
      "תח": 1972,
      "לנו": 1973,
      "##ומה": 1974,
      "יד": 1975,
      "##ודה": 1976,
      "##צל": 1977,
      "נע": 1978,
      "בל": 1979,
      "אלא": 1980,
      "##el": 1981,
      "נכ": 1982,
      "##an": 1983,
      "איש": 1984,
      "שלו": 1985,
      "שהוא": 1986,
      "##יפה": 1987,
      "חלק": 1988,
      "ממש": 1989,
      "נש": 1990,
      "מספר": 1991,
      "יח": 1992,
      "##ולוג": 1993,
      "המת": 1994,
      "כבר": 1995,
      "ניתן": 1996,
      "קט": 1997,
      "גב": 1998,
      "אחרי": 1999,
      "כול": 2000,
      "##וכל": 2001,
      "ולה": 2002,
      "##סה": 2003,
      "הכל": 2004,
      "##ידה": 2005,
      "##סי": 2006,
      "##קר": 2007,
      "למע": 2008,
      "##פור": 2009,
      "הל": 2010,
      "##וצה": 2011,
      "נפ": 2012,
      "הפר": 2013,
      "ונ": 2014,
      "בז": 2015,
      "בבית": 2016,
      "כמה": 2017,
      "שיש": 2018,
      "##יבור": 2019,
      "##at": 2020,
      "##ושה": 2021,
      "המשפט": 2022,
      "##צי": 2023,
      "רב": 2024,
      "10": 2025,
      "אלי": 2026,
      "##es": 2027,
      "##יבות": 2028,
      "כן": 2029,
      "##כנ": 2030,
      "אפשר": 2031,
      "##או": 2032,
      "##ימים": 2033,
      "מר": 2034,
      "##ינה": 2035,
      "##ניין": 2036,
      "כש": 2037,
      "##רכת": 2038,
      "##יוחד": 2039,
      "כאשר": 2040,
      "##וחות": 2041,
      "##סף": 2042,
      "##בק": 2043,
      "בן": 2044,
      "נק": 2045,
      "##מל": 2046,
      "##תיים": 2047,
      "##ומים": 2048,
      "בתח": 2049,
      "היום": 2050,
      "##זר": 2051,
      "שת": 2052,
      "נח": 2053,
      "##ואה": 2054,
      "##צע": 2055,
      "הנו": 2056,
      "##en": 2057,
      "##תו": 2058,
      "##פל": 2059,
      "אחר": 2060,
      "מוצ": 2061,
      "התק": 2062,
      "##ודי": 2063,
      "המס": 2064,
      "##ולות": 2065,
      "##צב": 2066,
      "שח": 2067,
      "##פרי": 2068,
      "לט": 2069,
      "וק": 2070,
      "##לית": 2071,
      "##al": 2072,
      "האח": 2073,
      "##גיע": 2074,
      "שנים": 2075,
      "##כי": 2076,
      "מל": 2077,
      "במה": 2078,
      "##טה": 2079,
      "##יקר": 2080,
      "לר": 2081,
      "##בד": 2082,
      "יל": 2083,
      "200": 2084,
      "דבר": 2085,
      "##בוע": 2086,
      "טוב": 2087,
      "שלי": 2088,
      "השופט": 2089,
      "##עם": 2090,
      "אחת": 2091,
      "רג": 2092,
      "יום": 2093,
      "##לם": 2094,
      "##תם": 2095,
      "##קד": 2096,
      "11": 2097,
      "באופן": 2098,
      "##ליון": 2099,
      "##or": 2100,
      "##כש": 2101,
      "##יך": 2102,
      "##גה": 2103,
      "##בח": 2104,
      "במס": 2105,
      "##מית": 2106,
      "הרי": 2107,
      "לנ": 2108,
      "במש": 2109,
      "תה": 2110,
      "##ציה": 2111,
      "עבור": 2112,
      "##ילת": 2113,
      "##ידע": 2114,
      "##מא": 2115,
      "קצ": 2116,
      "תל": 2117,
      "##ינים": 2118,
      "ללא": 2119,
      "אור": 2120,
      "עוב": 2121,
      "##טור": 2122,
      "##קת": 2123,
      "הרבה": 2124,
      "##יהם": 2125,
      "##ירוע": 2126,
      "שלנו": 2127,
      "גר": 2128,
      "12": 2129,
      "אביב": 2130,
      "##ra": 2131,
      "מנ": 2132,
      "אלה": 2133,
      "##פע": 2134,
      "##ניים": 2135,
      "אנו": 2136,
      "##אלי": 2137,
      "משפט": 2138,
      "##קב": 2139,
      "ספר": 2140,
      "תש": 2141,
      "רח": 2142,
      "אף": 2143,
      "נה": 2144,
      "ועוד": 2145,
      "אדם": 2146,
      "##ובות": 2147,
      "בלי": 2148,
      "##רונות": 2149,
      "##דו": 2150,
      "משה": 2151,
      "##ביר": 2152,
      "##יפול": 2153,
      "להם": 2154,
      "in": 2155,
      "לפי": 2156,
      "תע": 2157,
      "אד": 2158,
      "##גים": 2159,
      "##שם": 2160,
      "אנחנו": 2161,
      "הגד": 2162,
      "אס": 2163,
      "##ומות": 2164,
      "##בודה": 2165,
      "##תא": 2166,
      "המא": 2167,
      "בתי": 2168,
      "##ריה": 2169,
      "מוס": 2170,
      "שנה": 2171,
      "אותה": 2172,
      "##ימוש": 2173,
      "##יפור": 2174,
      "כמ": 2175,
      "##קי": 2176,
      "##os": 2177,
      "st": 2178,
      "הלי": 2179,
      "##בא": 2180,
      "##מור": 2181,
      "##ודים": 2182,
      "##פס": 2183,
      "##רבות": 2184,
      "##דש": 2185,
      "##כר": 2186,
      "רכ": 2187,
      "##חו": 2188,
      "וגם": 2189,
      "באמצ": 2190,
      "רבים": 2191,
      "##שוט": 2192,
      "לכם": 2193,
      "##ירוש": 2194,
      "##דינה": 2195,
      "##גל": 2196,
      "אותם": 2197,
      "רצ": 2198,
      "הספר": 2199,
      "דרך": 2200,
      "וס": 2201,
      "ברי": 2202,
      "לעשות": 2203,
      "##רום": 2204,
      "##קט": 2205,
      "האם": 2206,
      "שר": 2207,
      "מלא": 2208,
      "##ירי": 2209,
      "##יבים": 2210,
      "הייתה": 2211,
      "##יכות": 2212,
      "##ומת": 2213,
      "##אן": 2214,
      "##ער": 2215,
      "בשנת": 2216,
      "אנשים": 2217,
      "##ודות": 2218,
      "##ואר": 2219,
      "צריך": 2220,
      "שירות": 2221,
      "##it": 2222,
      "##שרד": 2223,
      "בישראל": 2224,
      "##ופי": 2225,
      "##עד": 2226,
      "##קס": 2227,
      "אתה": 2228,
      "בנ": 2229,
      "מן": 2230,
      "זמן": 2231,
      "כד": 2232,
      "המצ": 2233,
      "##ובע": 2234,
      "##מין": 2235,
      "##גות": 2236,
      "כאן": 2237,
      "##שק": 2238,
      "כה": 2239,
      "##בט": 2240,
      "חז": 2241,
      "##תק": 2242,
      "אמר": 2243,
      "##בו": 2244,
      "נא": 2245,
      "התי": 2246,
      "גבוה": 2247,
      "חומ": 2248,
      "##צים": 2249,
      "פל": 2250,
      "##מח": 2251,
      "##ראות": 2252,
      "##ודש": 2253,
      "חיים": 2254,
      "##טרה": 2255,
      "##ליך": 2256,
      "##פון": 2257,
      "##ברית": 2258,
      "##לל": 2259,
      "החלט": 2260,
      "החברה": 2261,
      "יוד": 2262,
      "תא": 2263,
      "##ובי": 2264,
      "לך": 2265,
      "ופ": 2266,
      "##לון": 2267,
      "הן": 2268,
      "##מונה": 2269,
      "משת": 2270,
      "##צר": 2271,
      "##ic": 2272,
      "ביט": 2273,
      "משפ": 2274,
      "##מעות": 2275,
      "18": 2276,
      "##יטה": 2277,
      "##ויות": 2278,
      "##ריות": 2279,
      "גור": 2280,
      "קי": 2281,
      "##ינוי": 2282,
      "לז": 2283,
      "15": 2284,
      "יהיה": 2285,
      "##מק": 2286,
      "התח": 2287,
      "מתח": 2288,
      "הראשון": 2289,
      "בלב": 2290,
      "##גע": 2291,
      "אתם": 2292,
      "מנה": 2293,
      "נמצ": 2294,
      "##יבת": 2295,
      "##וון": 2296,
      "במקום": 2297,
      "די": 2298,
      "שש": 2299,
      "##ובן": 2300,
      "להע": 2301,
      "לל": 2302,
      "עסק": 2303,
      "העולם": 2304,
      "##לום": 2305,
      "##גרת": 2306,
      "##וסי": 2307,
      "שי": 2308,
      "מקצוע": 2309,
      "עדי": 2310,
      "פרט": 2311,
      "השני": 2312,
      "##ריק": 2313,
      "##חון": 2314,
      "חוק": 2315,
      "קור": 2316,
      "באמצעות": 2317,
      "##רמ": 2318,
      "##ימת": 2319,
      "##גור": 2320,
      "חברת": 2321,
      "העיר": 2322,
      "קב": 2323,
      "אלו": 2324,
      "למצ": 2325,
      "במח": 2326,
      "פס": 2327,
      "שלהם": 2328,
      "##ברת": 2329,
      "עבודות": 2330,
      "אה": 2331,
      "##יחס": 2332,
      "##ותו": 2333,
      "שונים": 2334,
      "מקום": 2335,
      "פשוט": 2336,
      "##ליט": 2337,
      "##ילדים": 2338,
      "יוצ": 2339,
      "##פקיד": 2340,
      "מול": 2341,
      "##et": 2342,
      "כנ": 2343,
      "רע": 2344,
      "##נוע": 2345,
      "לקבל": 2346,
      "עמ": 2347,
      "כלל": 2348,
      "to": 2349,
      "כולל": 2350,
      "##ימות": 2351,
      "הוד": 2352,
      "ואת": 2353,
      "פול": 2354,
      "ירו": 2355,
      "כשה": 2356,
      "פעם": 2357,
      "מכל": 2358,
      "##כון": 2359,
      "איך": 2360,
      "מור": 2361,
      "מוש": 2362,
      "##ביא": 2363,
      "הרו": 2364,
      "##פש": 2365,
      "בהם": 2366,
      "##גן": 2367,
      "בעולם": 2368,
      "פרי": 2369,
      "##יי": 2370,
      "האמ": 2371,
      "סט": 2372,
      "עבודה": 2373,
      "אינו": 2374,
      "##ль": 2375,
      "במהלך": 2376,
      "סוג": 2377,
      "הנת": 2378,
      "מוד": 2379,
      "מוע": 2380,
      "##is": 2381,
      "חס": 2382,
      "שט": 2383,
      "##גת": 2384,
      "ית": 2385,
      "##ра": 2386,
      "במע": 2387,
      "##וסט": 2388,
      "##נם": 2389,
      "##ולת": 2390,
      "ניס": 2391,
      "ביום": 2392,
      "החל": 2393,
      "is": 2394,
      "אש": 2395,
      "מנת": 2396,
      "חשוב": 2397,
      "פני": 2398,
      "קרובים": 2399,
      "##יוון": 2400,
      "##ביע": 2401,
      "אג": 2402,
      "בעלי": 2403,
      "הרג": 2404,
      "##נון": 2405,
      "##וקר": 2406,
      "##צות": 2407,
      "וז": 2408,
      "##קו": 2409,
      "גדול": 2410,
      "##he": 2411,
      "##ווי": 2412,
      "תוכ": 2413,
      "הופ": 2414,
      "לבית": 2415,
      "הור": 2416,
      "אחרים": 2417,
      "פור": 2418,
      "שהם": 2419,
      "שבה": 2420,
      "הול": 2421,
      "מדובר": 2422,
      "תוך": 2423,
      "14": 2424,
      "##בעים": 2425,
      "##שרה": 2426,
      "שג": 2427,
      "##רד": 2428,
      "##פרס": 2429,
      "למש": 2430,
      "##רכות": 2431,
      "וד": 2432,
      "##ליים": 2433,
      "ארו": 2434,
      "התע": 2435,
      "d7": 2436,
      "##ли": 2437,
      "מתק": 2438,
      "##ושים": 2439,
      "##רע": 2440,
      "והוא": 2441,
      "##צמ": 2442,
      "##יצור": 2443,
      "שהיא": 2444,
      "##גש": 2445,
      "כח": 2446,
      "מוכ": 2447,
      "בתחום": 2448,
      "הני": 2449,
      "בעל": 2450,
      "וי": 2451,
      "שאני": 2452,
      "עליה": 2453,
      "ועל": 2454,
      "חדש": 2455,
      "##ומית": 2456,
      "##וקה": 2457,
      "השת": 2458,
      "##יבי": 2459,
      "וכן": 2460,
      "13": 2461,
      "סב": 2462,
      "##זק": 2463,
      "עצמו": 2464,
      "רש": 2465,
      "טע": 2466,
      "ובע": 2467,
      "רוב": 2468,
      "##ing": 2469,
      "בדי": 2470,
      "##ועל": 2471,
      "##om": 2472,
      "##וצים": 2473,
      "שלכם": 2474,
      "מרכז": 2475,
      "##נן": 2476,
      "צרי": 2477,
      "cl": 2478,
      "##טרנט": 2479,
      "חל": 2480,
      "##ed": 2481,
      "אומ": 2482,
      "שלך": 2483,
      "##as": 2484,
      "תיק": 2485,
      "##ופים": 2486,
      "סי": 2487,
      "##וקים": 2488,
      "##דרה": 2489,
      "קיב": 2490,
      "##יצוב": 2491,
      "##יכה": 2492,
      "תמ": 2493,
      "##am": 2494,
      "נד": 2495,
      "##קל": 2496,
      "##ion": 2497,
      "בשל": 2498,
      "עליו": 2499,
      "שמע": 2500,
      "ומע": 2501,
      "נג": 2502,
      "שבו": 2503,
      "##ביל": 2504,
      "##חלט": 2505,
      "##צת": 2506,
      "##יעים": 2507,
      "##ינם": 2508,
      "##בעת": 2509,
      "##רון": 2510,
      "שפ": 2511,
      "בארץ": 2512,
      "היתה": 2513,
      "לימ": 2514,
      "##מס": 2515,
      "ביק": 2516,
      "יחד": 2517,
      "עש": 2518,
      "קרי": 2519,
      "##מוק": 2520,
      "אצל": 2521,
      "המדינה": 2522,
      "##שרות": 2523,
      "רבות": 2524,
      "##וצאה": 2525,
      "דו": 2526,
      "##תיות": 2527,
      "##ולד": 2528,
      "##ופת": 2529,
      "ספ": 2530,
      "להצ": 2531,
      "מתוך": 2532,
      "למה": 2533,
      "להכ": 2534,
      "##נסת": 2535,
      "##ברות": 2536,
      "איר": 2537,
      "##זו": 2538,
      "אית": 2539,
      "שתי": 2540,
      "##נשים": 2541,
      "##מעט": 2542,
      "להג": 2543,
      "הבית": 2544,
      "##ירושלים": 2545,
      "סרט": 2546,
      "תמיד": 2547,
      "בלבד": 2548,
      "מומ": 2549,
      "מדינת": 2550,
      "##יטת": 2551,
      "##שימה": 2552,
      "ויש": 2553,
      "16": 2554,
      "##יסט": 2555,
      "המב": 2556,
      "##זרח": 2557,
      "אופ": 2558,
      "וכל": 2559,
      "דין": 2560,
      "חוש": 2561,
      "לראות": 2562,
      "##rael": 2563,
      "##שראלי": 2564,
      "##שתמש": 2565,
      "החש": 2566,
      "יק": 2567,
      "ואח": 2568,
      "הכי": 2569,
      "במיוחד": 2570,
      "##ко": 2571,
      "כפי": 2572,
      "israel": 2573,
      "##ונית": 2574,
      "משמעות": 2575,
      "פרו": 2576,
      "שיע": 2577,
      "קל": 2578,
      "##רכים": 2579,
      "##כשיו": 2580,
      "קשה": 2581,
      "תר": 2582,
      "ביצ": 2583,
      "##פיק": 2584,
      "גל": 2585,
      "מוז": 2586,
      "##ניהם": 2587,
      "ולכן": 2588,
      "##וצר": 2589,
      "הארץ": 2590,
      "בתק": 2591,
      "##ישי": 2592,
      "##ot": 2593,
      "פרס": 2594,
      "הפע": 2595,
      "אומר": 2596,
      "קול": 2597,
      "בתוך": 2598,
      "##לוו": 2599,
      "##יוק": 2600,
      "##ברס": 2601,
      "לכך": 2602,
      "##מוך": 2603,
      "פחות": 2604,
      "##il": 2605,
      "##מט": 2606,
      "ילדים": 2607,
      "אפילו": 2608,
      "רוצה": 2609,
      "בצורה": 2610,
      "##משך": 2611,
      "והא": 2612,
      "צי": 2613,
      "והת": 2614,
      "30": 2615,
      "##ose": 2616,
      "##וחים": 2617,
      "עצמ": 2618,
      "העוב": 2619,
      "##ופר": 2620,
      "הממש": 2621,
      "מערכת": 2622,
      "##שלים": 2623,
      "ומה": 2624,
      "17": 2625,
      "ברח": 2626,
      "הראשונה": 2627,
      "שבע": 2628,
      "##ליות": 2629,
      "##וסף": 2630,
      "למצוא": 2631,
      "עדיין": 2632,
      "שהת": 2633,
      "##שית": 2634,
      "שאין": 2635,
      "הזמן": 2636,
      "##ינוך": 2637,
      "בעיקר": 2638,
      "משחק": 2639,
      "השופטת": 2640,
      "הנה": 2641,
      "##וחה": 2642,
      "האדם": 2643,
      "##ur": 2644,
      "##ריים": 2645,
      "שהיה": 2646,
      "שזה": 2647,
      "העבודה": 2648,
      "החיים": 2649,
      "מלח": 2650,
      "יב": 2651,
      "ומת": 2652,
      "##חור": 2653,
      "##ניק": 2654,
      "##שרים": 2655,
      "##יאה": 2656,
      "##פוא": 2657,
      "הרכ": 2658,
      "התא": 2659,
      "##וצאות": 2660,
      "##רונה": 2661,
      "במסגרת": 2662,
      "החלטה": 2663,
      "##ולוגיה": 2664,
      "מים": 2665,
      "##ותה": 2666,
      "בראש": 2667,
      "העליון": 2668,
      "קוד": 2669,
      "##שורת": 2670,
      "##עו": 2671,
      "הלא": 2672,
      "##uu": 2673,
      "כס": 2674,
      "##ידות": 2675,
      "אותי": 2676,
      "צע": 2677,
      "##כויות": 2678,
      "##ימה": 2679,
      "תפ": 2680,
      "##נא": 2681,
      "למרות": 2682,
      "##יקט": 2683,
      "##טח": 2684,
      "באתר": 2685,
      "משהו": 2686,
      "##ch": 2687,
      "הגיע": 2688,
      "כיום": 2689,
      "נראה": 2690,
      "כבוד": 2691,
      "היח": 2692,
      "##קבות": 2693,
      "אולי": 2694,
      "ברו": 2695,
      "##רגון": 2696,
      "##ודית": 2697,
      "עומ": 2698,
      "##שרת": 2699,
      "בתל": 2700,
      "הביט": 2701,
      "חברה": 2702,
      "##יאות": 2703,
      "close": 2704,
      "ועד": 2705,
      "מסו": 2706,
      "מאז": 2707,
      "השנה": 2708,
      "##דון": 2709,
      "##נטים": 2710,
      "שוב": 2711,
      "הדין": 2712,
      "כג": 2713,
      "##נסה": 2714,
      "וט": 2715,
      "##ביעה": 2716,
      "##ליק": 2717,
      "##ol": 2718,
      "##ינג": 2719,
      "וצ": 2720,
      "כתב": 2721,
      "שיח": 2722,
      "ערב": 2723,
      "##יניים": 2724,
      "מוג": 2725,
      "##ומן": 2726,
      "המד": 2727,
      "הדי": 2728,
      "למשל": 2729,
      "יכולים": 2730,
      "##иль": 2731,
      "ומו": 2732,
      "из": 2733,
      "##וכלו": 2734,
      "לעבוד": 2735,
      "##בלת": 2736,
      "מעט": 2737,
      "מידע": 2738,
      "אליה": 2739,
      "כמעט": 2740,
      "##ניס": 2741,
      "הרא": 2742,
      "##ובעים": 2743,
      "##ברו": 2744,
      "אולם": 2745,
      "הברי": 2746,
      "להפ": 2747,
      "חשב": 2748,
      "השלום": 2749,
      "טבע": 2750,
      "למו": 2751,
      "199": 2752,
      "##יתוח": 2753,
      "##חז": 2754,
      "בזמן": 2755,
      "לפע": 2756,
      "##נצ": 2757,
      "מופ": 2758,
      "בפר": 2759,
      "##us": 2760,
      "הקב": 2761,
      "##лиз": 2762,
      "##מנות": 2763,
      "близ": 2764,
      "близко": 2765,
      "##ופות": 2766,
      "נט": 2767,
      "המוע": 2768,
      "וזה": 2769,
      "##פורט": 2770,
      "המכ": 2771,
      "שעות": 2772,
      "אוה": 2773,
      "בירושלים": 2774,
      "מיוחד": 2775,
      "изра": 2776,
      "העסק": 2777,
      "איט": 2778,
      "החד": 2779,
      "an": 2780,
      "בהתא": 2781,
      "##ליח": 2782,
      "израиль": 2783,
      "אחרת": 2784,
      "נכון": 2785,
      "##דרות": 2786,
      "##רש": 2787,
      "ההת": 2788,
      "מבק": 2789,
      "##רקע": 2790,
      "##גי": 2791,
      "##יוני": 2792,
      "בנוסף": 2793,
      "תכ": 2794,
      "שימוש": 2795,
      "##נע": 2796,
      "לגבי": 2797,
      "##רגע": 2798,
      "האחר": 2799,
      "לכן": 2800,
      "מהם": 2801,
      "יא": 2802,
      "הקר": 2803,
      "נצ": 2804,
      "חמ": 2805,
      "שיו": 2806,
      "למח": 2807,
      "איכות": 2808,
      "##רית": 2809,
      "משרד": 2810,
      "טר": 2811,
      "להגיע": 2812,
      "נוספים": 2813,
      "דברים": 2814,
      "ובה": 2815,
      "המט": 2816,
      "##יסה": 2817,
      "25": 2818,
      "##ויים": 2819,
      "##ילד": 2820,
      "שונות": 2821,
      "שמו": 2822,
      "##נאי": 2823,
      "##וקא": 2824,
      "והמ": 2825,
      "קשר": 2826,
      "ומש": 2827,
      "שכל": 2828,
      "שנת": 2829,
      "##ובל": 2830,
      "מנו": 2831,
      "והש": 2832,
      "פת": 2833,
      "המרכז": 2834,
      "קו": 2835,
      "##אלה": 2836,
      "לבין": 2837,
      "##מנים": 2838,
      "למק": 2839,
      "##רכה": 2840,
      "##ודת": 2841,
      "בגלל": 2842,
      "זכ": 2843,
      "עכשיו": 2844,
      "אינה": 2845,
      "להש": 2846,
      "הפס": 2847,
      "##על": 2848,
      "##ימון": 2849,
      "##ובעת": 2850,
      "##יסטור": 2851,
      "##נטי": 2852,
      "עז": 2853,
      "הגב": 2854,
      "שצ": 2855,
      "##ad": 2856,
      "אר": 2857,
      "תחת": 2858,
      "נוסף": 2859,
      "ור": 2860,
      "##ינת": 2861,
      "הרצ": 2862,
      "##דרת": 2863,
      "יס": 2864,
      "שבוע": 2865,
      "היר": 2866,
      "קצת": 2867,
      "בעקבות": 2868,
      "דוד": 2869,
      "הערב": 2870,
      "##re": 2871,
      "##וציא": 2872,
      "בלתי": 2873,
      "##בלים": 2874,
      "דור": 2875,
      "עו": 2876,
      "להס": 2877,
      "##דק": 2878,
      "##תב": 2879,
      "באמת": 2880,
      "##כס": 2881,
      "##עתי": 2882,
      "עיר": 2883,
      "להב": 2884,
      "מיו": 2885,
      "קש": 2886,
      "##הל": 2887,
      "גיל": 2888,
      "ימים": 2889,
      "##פחה": 2890,
      "ומס": 2891,
      "האינ": 2892,
      "##לין": 2893,
      "##ישים": 2894,
      "דא": 2895,
      "אירוע": 2896,
      "במשך": 2897,
      "מתי": 2898,
      "000": 2899,
      "הו": 2900,
      "##le": 2901,
      "יור": 2902,
      "מוב": 2903,
      "ירושלים": 2904,
      "##ואים": 2905,
      "##ודשים": 2906,
      "הסרט": 2907,
      "לתק": 2908,
      "היש": 2909,
      "פרק": 2910,
      "##יין": 2911,
      "מרג": 2912,
      "##מונות": 2913,
      "טל": 2914,
      "שנות": 2915,
      "חברות": 2916,
      "כזה": 2917,
      "##סטי": 2918,
      "בדיוק": 2919,
      "ואני": 2920,
      "##im": 2921,
      "המבק": 2922,
      "מיליון": 2923,
      "##בורה": 2924,
      "##יצוני": 2925,
      "ניצ": 2926,
      "והח": 2927,
      "##ימי": 2928,
      "כגון": 2929,
      "והע": 2930,
      "בכלל": 2931,
      "טיפול": 2932,
      "בעיר": 2933,
      "השר": 2934,
      "##ציות": 2935,
      "הזו": 2936,
      "הממשלה": 2937,
      "ניק": 2938,
      "שאל": 2939,
      "לדעת": 2940,
      "##משיך": 2941,
      "מוק": 2942,
      "##נהל": 2943,
      "השלי": 2944,
      "למס": 2945,
      "##ידים": 2946,
      "##כיר": 2947,
      "ארב": 2948,
      "המה": 2949,
      "קבוצ": 2950,
      "מרו": 2951,
      "האתר": 2952,
      "ככל": 2953,
      "תג": 2954,
      "ממנו": 2955,
      "##טל": 2956,
      "ומא": 2957,
      "##שוב": 2958,
      "##רבה": 2959,
      "##דור": 2960,
      "נוש": 2961,
      "הדר": 2962,
      "הרח": 2963,
      "##ושת": 2964,
      "##לתי": 2965,
      "הנא": 2966,
      "בהתאם": 2967,
      "הכול": 2968,
      "ראשון": 2969,
      "בעצ": 2970,
      "##יפים": 2971,
      "##iv": 2972,
      "הגדול": 2973,
      "מעל": 2974,
      "כלי": 2975,
      "לקר": 2976,
      "עור": 2977,
      "בעת": 2978,
      "המל": 2979,
      "הדבר": 2980,
      "##ואל": 2981,
      "##יונות": 2982,
      "טי": 2983,
      "##יקים": 2984,
      "##ent": 2985,
      "רוח": 2986,
      "חול": 2987,
      "הייתי": 2988,
      "##וסר": 2989,
      "ספק": 2990,
      "##אית": 2991,
      "##ראת": 2992,
      "##ומו": 2993,
      "##יתר": 2994,
      "הצד": 2995,
      "מני": 2996,
      "##נר": 2997,
      "מאד": 2998,
      "##רפ": 2999,
      "שום": 3000,
      "##אב": 3001,
      "אק": 3002,
      "##זרת": 3003,
      "ואף": 3004,
      "##רצות": 3005,
      "##יצד": 3006,
      "ha": 3007,
      "בתיק": 3008,
      "##שלום": 3009,
      "גדולה": 3010,
      "##סם": 3011,
      "##מון": 3012,
      "החוק": 3013,
      "הציבור": 3014,
      "הקט": 3015,
      "##כתב": 3016,
      "##ורג": 3017,
      "##יטב": 3018,
      "אוכל": 3019,
      "ליד": 3020,
      "הרש": 3021,
      "##וניברס": 3022,
      "סמ": 3023,
      "מבחי": 3024,
      "24": 3025,
      "פה": 3026,
      "נשים": 3027,
      "יודע": 3028,
      "נות": 3029,
      "##מנו": 3030,
      "##ופו": 3031,
      "נמצא": 3032,
      "כולם": 3033,
      "התובע": 3034,
      "ממו": 3035,
      "מזה": 3036,
      "בשם": 3037,
      "יכולה": 3038,
      "טובה": 3039,
      "##עיף": 3040,
      "21": 3041,
      "##נועה": 3042,
      "##ווח": 3043,
      "##נסות": 3044,
      "##וחר": 3045,
      "ואם": 3046,
      "זוג": 3047,
      "##חרות": 3048,
      "##נח": 3049,
      "##נחנו": 3050,
      "דעת": 3051,
      "##ישור": 3052,
      "פא": 3053,
      "שית": 3054,
      "לאורך": 3055,
      "the": 3056,
      "מטר": 3057,
      "##em": 3058,
      "כמובן": 3059,
      "##ir": 3060,
      "##ישות": 3061,
      "##רטיס": 3062,
      "חופ": 3063,
      "##נייה": 3064,
      "הנש": 3065,
      "האחרון": 3066,
      "##יאל": 3067,
      "##ווים": 3068,
      "הדרך": 3069,
      "החדש": 3070,
      "נב": 3071,
      "##מרי": 3072,
      "סג": 3073,
      "##סית": 3074,
      "ים": 3075,
      "רבי": 3076,
      "לאור": 3077,
      "##סון": 3078,
      "אבי": 3079,
      "##בית": 3080,
      "אליו": 3081,
      "##יחה": 3082,
      "מעבר": 3083,
      "השנים": 3084,
      "##מנה": 3085,
      "הלב": 3086,
      "##חן": 3087,
      "##ונו": 3088,
      "המג": 3089,
      "מסוג": 3090,
      "##וכה": 3091,
      "דקות": 3092,
      "דול": 3093,
      "ני": 3094,
      "##כב": 3095,
      "הילדים": 3096,
      "במקרה": 3097,
      "מאפשר": 3098,
      "בקרב": 3099,
      "##זל": 3100,
      "לפר": 3101,
      "##ובת": 3102,
      "יעקב": 3103,
      "באזור": 3104,
      "בסיס": 3105,
      "לתת": 3106,
      "##רוץ": 3107,
      "סיכ": 3108,
      "לעצ": 3109,
      "##דרים": 3110,
      "מכן": 3111,
      "##ייה": 3112,
      "קלי": 3113,
      "אתר": 3114,
      "##גו": 3115,
      "##ולט": 3116,
      "##סקי": 3117,
      "מצד": 3118,
      "רשת": 3119,
      "##כור": 3120,
      "פעילות": 3121,
      "בכך": 3122,
      "לרכ": 3123,
      "##זים": 3124,
      "##מבר": 3125,
      "ומק": 3126,
      "##צו": 3127,
      "מיד": 3128,
      "לאח": 3129,
      "##נין": 3130,
      "רוצים": 3131,
      "##פתח": 3132,
      "מסת": 3133,
      "##תיד": 3134,
      "מהמ": 3135,
      "##ילי": 3136,
      "##מיים": 3137,
      "רבה": 3138,
      "פג": 3139,
      "##וכר": 3140,
      "##וקי": 3141,
      "ואז": 3142,
      "תהיה": 3143,
      "קטן": 3144,
      "##זון": 3145,
      "המוס": 3146,
      "כלומר": 3147,
      "##יפות": 3148,
      "חומרים": 3149,
      "משום": 3150,
      "גבוהה": 3151,
      "הבא": 3152,
      "##ירו": 3153,
      "הדברים": 3154,
      "אנשי": 3155,
      "אותנו": 3156,
      "כפר": 3157,
      "ביד": 3158,
      "198": 3159,
      "##נתי": 3160,
      "יהודה": 3161,
      "##צא": 3162,
      "בנושא": 3163,
      "00": 3164,
      "##ורר": 3165,
      "שבת": 3166,
      "נוע": 3167,
      "לקרוא": 3168,
      "מות": 3169,
      "50": 3170,
      "האלה": 3171,
      "לצד": 3172,
      "##מודים": 3173,
      "חב": 3174,
      "ובר": 3175,
      "ניה": 3176,
      "יצחק": 3177,
      "ברור": 3178,
      "יפה": 3179,
      "לבד": 3180,
      "בקשה": 3181,
      "##לן": 3182,
      "מוח": 3183,
      "##ro": 3184,
      "##כלה": 3185,
      "מערכות": 3186,
      "סוף": 3187,
      "כוח": 3188,
      "##ידי": 3189,
      "כסף": 3190,
      "##ни": 3191,
      "צורך": 3192,
      "עולם": 3193,
      "##תרון": 3194,
      "##וכן": 3195,
      "אינם": 3196,
      "##ac": 3197,
      "האד": 3198,
      "הישראלי": 3199,
      "הברית": 3200,
      "הזאת": 3201,
      "הוב": 3202,
      "22": 3203,
      "##id": 3204,
      "סימ": 3205,
      "##יבית": 3206,
      "##סיס": 3207,
      "כיצד": 3208,
      "דה": 3209,
      "קרא": 3210,
      "##פני": 3211,
      "##טון": 3212,
      "לפחות": 3213,
      "יפו": 3214,
      "עושה": 3215,
      "הפל": 3216,
      "100": 3217,
      "##יחות": 3218,
      "שכן": 3219,
      "בידי": 3220,
      "##יעות": 3221,
      "שמש": 3222,
      "השק": 3223,
      "##ig": 3224,
      "למעשה": 3225,
      "והה": 3226,
      "האחרונות": 3227,
      "##וזי": 3228,
      "והיא": 3229,
      "דר": 3230,
      "תהליך": 3231,
      "הישראל": 3232,
      "##צרים": 3233,
      "התש": 3234,
      "שנית": 3235,
      "דווקא": 3236,
      "שלום": 3237,
      "##ינות": 3238,
      "החי": 3239,
      "##לץ": 3240,
      "שס": 3241,
      "המוש": 3242,
      "לביט": 3243,
      "##שור": 3244,
      "##לונות": 3245,
      "האל": 3246,
      "##יית": 3247,
      "בעוד": 3248,
      "עשו": 3249,
      "##רפת": 3250,
      "טיפ": 3251,
      "מיל": 3252,
      "האיש": 3253,
      "##שהו": 3254,
      "יוסף": 3255,
      "הבע": 3256,
      "##יחוד": 3257,
      "מצב": 3258,
      "שיה": 3259,
      "רכב": 3260,
      "שקל": 3261,
      "פעולה": 3262,
      "##וויר": 3263,
      "##ורס": 3264,
      "היכ": 3265,
      "צה": 3266,
      "להק": 3267,
      "ובא": 3268,
      "שול": 3269,
      "עולה": 3270,
      "ואין": 3271,
      "##ורא": 3272,
      "ליה": 3273,
      "##רבית": 3274,
      "קודם": 3275,
      "##נגד": 3276,
      "##ודל": 3277,
      "##05": 3278,
      "כפ": 3279,
      "חת": 3280,
      "##ינלא": 3281,
      "ברא": 3282,
      "חומרי": 3283,
      "##זם": 3284,
      "##לחמה": 3285,
      "בנק": 3286,
      "שנו": 3287,
      "לזה": 3288,
      "חברי": 3289,
      "חודשים": 3290,
      "##ut": 3291,
      "הלק": 3292,
      "##יצר": 3293,
      "לבצע": 3294,
      "##ליל": 3295,
      "חוז": 3296,
      "##כני": 3297,
      "שיר": 3298,
      "##וסיף": 3299,
      "משק": 3300,
      "מקור": 3301,
      "עובד": 3302,
      "##פג": 3303,
      "##לוט": 3304,
      "שוק": 3305,
      "##ביבה": 3306,
      "המקום": 3307,
      "##בן": 3308,
      "כע": 3309,
      "תוכלו": 3310,
      "##שתי": 3311,
      "רמת": 3312,
      "משתמש": 3313,
      "##כול": 3314,
      "להבין": 3315,
      "##שתת": 3316,
      "עבר": 3317,
      "##יגה": 3318,
      "השבוע": 3319,
      "הרע": 3320,
      "לראש": 3321,
      "והס": 3322,
      "##ומיים": 3323,
      "תוש": 3324,
      "הוצ": 3325,
      "##ועים": 3326,
      "שיק": 3327,
      "ולע": 3328,
      "הסכ": 3329,
      "שיפ": 3330,
      "בשביל": 3331,
      "תת": 3332,
      "שגם": 3333,
      "מפני": 3334,
      "חג": 3335,
      "למד": 3336,
      "##שבים": 3337,
      "##וניות": 3338,
      "חדשים": 3339,
      "40": 3340,
      "בשנים": 3341,
      "להח": 3342,
      "ברק": 3343,
      "סכ": 3344,
      "יצא": 3345,
      "שמת": 3346,
      "נתבעים": 3347,
      "##נתה": 3348,
      "לומר": 3349,
      "זהו": 3350,
      "צבע": 3351,
      "##ילום": 3352,
      "יו": 3353,
      "שנע": 3354,
      "מיני": 3355,
      "סיפ": 3356,
      "##יוע": 3357,
      "ארי": 3358,
      "ידע": 3359,
      "##יתים": 3360,
      "##טיין": 3361,
      "משל": 3362,
      "##מידים": 3363,
      "of": 3364,
      "and": 3365,
      "##נסים": 3366,
      "ימי": 3367,
      "##סר": 3368,
      "##יכול": 3369,
      "פנים": 3370,
      "ירי": 3371,
      "לשם": 3372,
      "ציבור": 3373,
      "##תים": 3374,
      "אחרות": 3375,
      "##טרי": 3376,
      "השכ": 3377,
      "גן": 3378,
      "חר": 3379,
      "##רונים": 3380,
      "לעומת": 3381,
      "##ct": 3382,
      "##דן": 3383,
      "##וקת": 3384,
      "הקד": 3385,
      "חק": 3386,
      "נתניה": 3387,
      "תיא": 3388,
      "##רוך": 3389,
      "אזרח": 3390,
      "שיל": 3391,
      "אצ": 3392,
      "תובעים": 3393,
      "##ag": 3394,
      "מיק": 3395,
      "##וויה": 3396,
      "##טית": 3397,
      "תפקיד": 3398,
      "##מך": 3399,
      "##xx": 3400,
      "##ישהו": 3401,
      "צריכים": 3402,
      "##פא": 3403,
      "ומח": 3404,
      "השמ": 3405,
      "כהן": 3406,
      "חדשה": 3407,
      "##כנון": 3408,
      "##מיה": 3409,
      "##יפוש": 3410,
      "##נויות": 3411,
      "194": 3412,
      "הכנסת": 3413,
      "##נדר": 3414,
      "##גוד": 3415,
      "פרופ": 3416,
      "##תיק": 3417,
      "##טו": 3418,
      "השפ": 3419,
      "##רכו": 3420,
      "תב": 3421,
      "פעמים": 3422,
      "ולי": 3423,
      "האמריק": 3424,
      "עיצוב": 3425,
      "##כונות": 3426,
      "##הליך": 3427,
      "##גב": 3428,
      "##פיה": 3429,
      "מתא": 3430,
      "23": 3431,
      "מגוון": 3432,
      "##ומרים": 3433,
      "##ושר": 3434,
      "עק": 3435,
      "##ניסה": 3436,
      "רפוא": 3437,
      "בסוף": 3438,
      "##un": 3439,
      "##וליט": 3440,
      "##ען": 3441,
      "במרכז": 3442,
      "הקוד": 3443,
      "לבר": 3444,
      "מחשב": 3445,
      "הבח": 3446,
      "הללו": 3447,
      "קד": 3448,
      "##לוויז": 3449,
      "להז": 3450,
      "ללמוד": 3451,
      "##ייס": 3452,
      "היד": 3453,
      "דברי": 3454,
      "##ילן": 3455,
      "עמו": 3456,
      "שלושה": 3457,
      "##דרש": 3458,
      "חיל": 3459,
      "##ונן": 3460,
      "197": 3461,
      "##כח": 3462,
      "עליהם": 3463,
      "הבר": 3464,
      "דוג": 3465,
      "##רם": 3466,
      "##בלו": 3467,
      "##יפוי": 3468,
      "##נאים": 3469,
      "נז": 3470,
      "למי": 3471,
      "##יאת": 3472,
      "##בוק": 3473,
      "וכו": 3474,
      "פסק": 3475,
      "ונו": 3476,
      "##גרות": 3477,
      "בספר": 3478,
      "##רן": 3479,
      "צוות": 3480,
      "וכך": 3481,
      "זמ": 3482,
      "לצורך": 3483,
      "##יבל": 3484,
      "שירותי": 3485,
      "איטום": 3486,
      "המוצ": 3487,
      "##יסטוריה": 3488,
      "טכנ": 3489,
      "##והים": 3490,
      "##חקר": 3491,
      "מהא": 3492,
      "דיו": 3493,
      "להשתמש": 3494,
      "##פרט": 3495,
      "במידה": 3496,
      "ליצור": 3497,
      "##ותם": 3498,
      "##כלי": 3499,
      "##ינויים": 3500,
      "חדשות": 3501,
      "סיפור": 3502,
      "לקראת": 3503,
      "שהיו": 3504,
      "לטע": 3505,
      "com": 3506,
      "שמא": 3507,
      "לכת": 3508,
      "השירות": 3509,
      "##ay": 3510,
      "סביב": 3511,
      "ארג": 3512,
      "##גדל": 3513,
      "##ברהם": 3514,
      "פלי": 3515,
      "ואל": 3516,
      "##דינות": 3517,
      "התורה": 3518,
      "##דל": 3519,
      "##רבים": 3520,
      "##קור": 3521,
      "##וכנית": 3522,
      "עצמה": 3523,
      "מראש": 3524,
      "השנייה": 3525,
      "בזה": 3526,
      "משפחת": 3527,
      "נוספת": 3528,
      "אישי": 3529,
      "##חם": 3530,
      "##ואי": 3531,
      "##וסק": 3532,
      "##ידו": 3533,
      "והפ": 3534,
      "##סור": 3535,
      "צד": 3536,
      "סל": 3537,
      "##טא": 3538,
      "##וסים": 3539,
      "##הילה": 3540,
      "##ברג": 3541,
      "בעבר": 3542,
      "##זי": 3543,
      "דולר": 3544,
      "כדאי": 3545,
      "##ופא": 3546,
      "ניהול": 3547,
      "גול": 3548,
      "##יצה": 3549,
      "המוד": 3550,
      "עובדים": 3551,
      "למעלה": 3552,
      "##ation": 3553,
      "דג": 3554,
      "שינוי": 3555,
      "##ליו": 3556,
      "מקצועי": 3557,
      "##רבי": 3558,
      "אוו": 3559,
      "##בול": 3560,
      "ובכל": 3561,
      "ומצ": 3562,
      "מילי": 3563,
      "לקחת": 3564,
      "האירוע": 3565,
      "הינו": 3566,
      "##דיה": 3567,
      "##טות": 3568,
      "זק": 3569,
      "בדר": 3570,
      "המשפחה": 3571,
      "##יעו": 3572,
      "הכת": 3573,
      "##מצא": 3574,
      "שחק": 3575,
      "##וספת": 3576,
      "ושל": 3577,
      "##בעה": 3578,
      "מסע": 3579,
      "המשחק": 3580,
      "##מינים": 3581,
      "טוע": 3582,
      "יהיו": 3583,
      "מספיק": 3584,
      "##סוף": 3585,
      "##קסט": 3586,
      "##וריה": 3587,
      "מאת": 3588,
      "ביח": 3589,
      "##ישוב": 3590,
      "הטבע": 3591,
      "2011": 3592,
      "העצ": 3593,
      "##דרי": 3594,
      "תרג": 3595,
      "כות": 3596,
      "חוץ": 3597,
      "חודש": 3598,
      "אזור": 3599,
      "בניה": 3600,
      "עוז": 3601,
      "שונה": 3602,
      "##פילו": 3603,
      "לישראל": 3604,
      "משא": 3605,
      "מחדש": 3606,
      "זכויות": 3607,
      "הגוף": 3608,
      "פיר": 3609,
      "להתח": 3610,
      "##ביב": 3611,
      "ובמ": 3612,
      "לוק": 3613,
      "סוגי": 3614,
      "##וצות": 3615,
      "##ונג": 3616,
      "קא": 3617,
      "##ер": 3618,
      "החינוך": 3619,
      "##יף": 3620,
      "##ידור": 3621,
      "נמ": 3622,
      "הצע": 3623,
      "אלף": 3624,
      "לכפר": 3625,
      "##ידת": 3626,
      "ערך": 3627,
      "איזה": 3628,
      "שהע": 3629,
      "מוט": 3630,
      "להתק": 3631,
      "##ניינים": 3632,
      "השל": 3633,
      "##פתחות": 3634,
      "לעולם": 3635,
      "##כלית": 3636,
      "##ul": 3637,
      "ויצ": 3638,
      "הישראלית": 3639,
      "lt": 3640,
      "החדשה": 3641,
      "כאלה": 3642,
      "גבי": 3643,
      "##ונס": 3644,
      "ההג": 3645,
      "שלוש": 3646,
      "ניסיון": 3647,
      "בהחלט": 3648,
      "##לוויזיה": 3649,
      "##ורף": 3650,
      "יג": 3651,
      "והם": 3652,
      "##בירה": 3653,
      "שלמה": 3654,
      "כלפי": 3655,
      "מנהל": 3656,
      "##וגה": 3657,
      "196": 3658,
      "##uuuu": 3659,
      "חיצוני": 3660,
      "שימ": 3661,
      "##קשה": 3662,
      "##שייה": 3663,
      "מהש": 3664,
      "והצ": 3665,
      "בהן": 3666,
      "ההס": 3667,
      "מאות": 3668,
      "2012": 3669,
      "שהח": 3670,
      "באותו": 3671,
      "אמנם": 3672,
      "##st": 3673,
      "והן": 3674,
      "מונ": 3675,
      "בעזרת": 3676,
      "##פרים": 3677,
      "##סות": 3678,
      "ויר": 3679,
      "גז": 3680,
      "##וביץ": 3681,
      "##יץ": 3682,
      "בשנה": 3683,
      "שד": 3684,
      "מומלץ": 3685,
      "הסת": 3686,
      "חוב": 3687,
      "26": 3688,
      "צו": 3689,
      "פוליט": 3690,
      "אכן": 3691,
      "כאמור": 3692,
      "במא": 3693,
      "לפת": 3694,
      "יהודים": 3695,
      "יודעים": 3696,
      "יהודי": 3697,
      "חייב": 3698,
      "ייע": 3699,
      "עת": 3700,
      "הודעה": 3701,
      "הצדדים": 3702,
      "05": 3703,
      "באותה": 3704,
      "מהע": 3705,
      "מעור": 3706,
      "גדולים": 3707,
      "##יטות": 3708,
      "##מול": 3709,
      "##פקת": 3710,
      "חשמל": 3711,
      "עושים": 3712,
      "רואה": 3713,
      "פיתוח": 3714,
      "##יצוע": 3715,
      "##בלות": 3716,
      "##פוס": 3717,
      "##לקת": 3718,
      "המשך": 3719,
      "מגיע": 3720,
      "ילד": 3721,
      "כרטיס": 3722,
      "##רחב": 3723,
      "לטוב": 3724,
      "הפרו": 3725,
      "בטון": 3726,
      "תופ": 3727,
      "co": 3728,
      "אברהם": 3729,
      "##ושי": 3730,
      "לבחור": 3731,
      "בגין": 3732,
      "##וביל": 3733,
      "צמ": 3734,
      "התל": 3735,
      "##שע": 3736,
      "באי": 3737,
      "עקב": 3738,
      "שאנחנו": 3739,
      "להביא": 3740,
      "ידוע": 3741,
      "##ст": 3742,
      "יפ": 3743,
      "חיפה": 3744,
      "אותן": 3745,
      "מאשר": 3746,
      "##פשרות": 3747,
      "##שתו": 3748,
      "אבן": 3749,
      "##זרים": 3750,
      "פתח": 3751,
      "שאתה": 3752,
      "##ers": 3753,
      "הנח": 3754,
      "גא": 3755,
      "##מכים": 3756,
      "כנראה": 3757,
      "##וזה": 3758,
      "##רוס": 3759,
      "המים": 3760,
      "כמות": 3761,
      "u05": 3762,
      "מבין": 3763,
      "מדה": 3764,
      "בגיל": 3765,
      "חדר": 3766,
      "לידי": 3767,
      "הוע": 3768,
      "שאתם": 3769,
      "בסרט": 3770,
      "היתר": 3771,
      "27": 3772,
      "העם": 3773,
      "שמח": 3774,
      "אתכם": 3775,
      "ורק": 3776,
      "##ראי": 3777,
      "תורה": 3778,
      "להלן": 3779,
      "תודה": 3780,
      "##רכי": 3781,
      "##נתו": 3782,
      "sh": 3783,
      "מלחמת": 3784,
      "האופ": 3785,
      "אכ": 3786,
      "ללי": 3787,
      "לילדים": 3788,
      "לוח": 3789,
      "קיים": 3790,
      "##ליטה": 3791,
      "28": 3792,
      "במג": 3793,
      "כנגד": 3794,
      "אישית": 3795,
      "תרבות": 3796,
      "##צלחה": 3797,
      "##ישת": 3798,
      "עניין": 3799,
      "בהת": 3800,
      "##לקה": 3801,
      "##רס": 3802,
      "היהודי": 3803,
      "הים": 3804,
      "בעניין": 3805,
      "הרכב": 3806,
      "שז": 3807,
      "##ורם": 3808,
      "בהמשך": 3809,
      "משנה": 3810,
      "דומה": 3811,
      "התובעת": 3812,
      "##ינט": 3813,
      "קיבל": 3814,
      "שרי": 3815,
      "מהס": 3816,
      "המאה": 3817,
      "2018": 3818,
      "קצר": 3819,
      "התפ": 3820,
      "##יטים": 3821,
      "##יוס": 3822,
      "##אם": 3823,
      "##טרון": 3824,
      "עץ": 3825,
      "לדבר": 3826,
      "##רוב": 3827,
      "המידע": 3828,
      "החז": 3829,
      "##רגיה": 3830,
      "צפ": 3831,
      "לצאת": 3832,
      "מבט": 3833,
      "ולק": 3834,
      "הטיפול": 3835,
      "המקצוע": 3836,
      "המז": 3837,
      "##ופול": 3838,
      "לשמור": 3839,
      "אפשרות": 3840,
      "##כנית": 3841,
      "##ны": 3842,
      "הוק": 3843,
      "הטוב": 3844,
      "גמ": 3845,
      "מפל": 3846,
      "משות": 3847,
      "##ריז": 3848,
      "ממנה": 3849,
      "פק": 3850,
      "מאח": 3851,
      "נוכ": 3852,
      "הנס": 3853,
      "##סטר": 3854,
      "אול": 3855,
      "##עון": 3856,
      "להמשיך": 3857,
      "לביטוח": 3858,
      "##ов": 3859,
      "##רוני": 3860,
      "היהודים": 3861,
      "ולח": 3862,
      "כאילו": 3863,
      "קבוע": 3864,
      "לדברי": 3865,
      "##חדים": 3866,
      "קיד": 3867,
      "##סיק": 3868,
      "##מויות": 3869,
      "##פרד": 3870,
      "קמ": 3871,
      "re": 3872,
      "בשלב": 3873,
      "נוספות": 3874,
      "עצמם": 3875,
      "##יהן": 3876,
      "השימוש": 3877,
      "ביטוח": 3878,
      "שעה": 3879,
      "עצמי": 3880,
      "חכ": 3881,
      "התמ": 3882,
      "##שון": 3883,
      "הוכ": 3884,
      "המצב": 3885,
      "29": 3886,
      "אותך": 3887,
      "האור": 3888,
      "בינו": 3889,
      "למקום": 3890,
      "היצ": 3891,
      "לעבודה": 3892,
      "דלת": 3893,
      "שהא": 3894,
      "ברחבי": 3895,
      "היטב": 3896,
      "מכש": 3897,
      "##ראו": 3898,
      "##יכר": 3899,
      "סול": 3900,
      "פט": 3901,
      "60": 3902,
      "נחשב": 3903,
      "קבוצת": 3904,
      "צריכה": 3905,
      "09": 3906,
      "מהח": 3907,
      "90": 3908,
      "ריצ": 3909,
      "האחרונה": 3910,
      "המוז": 3911,
      "כוכ": 3912,
      "ביר": 3913,
      "צינ": 3914,
      "לפג": 3915,
      "עסקים": 3916,
      "העובדה": 3917,
      "נעשה": 3918,
      "עבד": 3919,
      "##ציב": 3920,
      "מבית": 3921,
      "##וגרים": 3922,
      "יז": 3923,
      "##נש": 3924,
      "רחב": 3925,
      "לשל": 3926,
      "למען": 3927,
      "סק": 3928,
      "שאינו": 3929,
      "אנג": 3930,
      "היע": 3931,
      "##מידה": 3932,
      "בשבוע": 3933,
      "לבן": 3934,
      "מלאה": 3935,
      "##ניח": 3936,
      "לדוג": 3937,
      "זוה": 3938,
      "ארץ": 3939,
      "מצא": 3940,
      "##ow": 3941,
      "##מודד": 3942,
      "מצוי": 3943,
      "שניתן": 3944,
      "##ak": 3945,
      "##יחים": 3946,
      "##od": 3947,
      "##מרו": 3948,
      "להור": 3949,
      "##תן": 3950,
      "הצל": 3951,
      "תצ": 3952,
      "ביצוע": 3953,
      "##ריקה": 3954,
      "האיר": 3955,
      "הקבוצה": 3956,
      "השונים": 3957,
      "ברכ": 3958,
      "סעיף": 3959,
      "במצ": 3960,
      "##ab": 3961,
      "לאומי": 3962,
      "מהר": 3963,
      "##ומיות": 3964,
      "רפ": 3965,
      "בשבת": 3966,
      "##פח": 3967,
      "##ריט": 3968,
      "עשרות": 3969,
      "תנו": 3970,
      "החולים": 3971,
      "לבני": 3972,
      "##ייע": 3973,
      "##מיות": 3974,
      "##נהגות": 3975,
      "מדוע": 3976,
      "משפחה": 3977,
      "עשה": 3978,
      "##ורית": 3979,
      "חצי": 3980,
      "ובכ": 3981,
      "##יבורי": 3982,
      "עין": 3983,
      "##רוש": 3984,
      "##בנה": 3985,
      "שבא": 3986,
      "גלי": 3987,
      "03": 3988,
      "צל": 3989,
      "תוכנית": 3990,
      "תמונות": 3991,
      "##ארד": 3992,
      "והק": 3993,
      "שנק": 3994,
      "פוע": 3995,
      "הזוג": 3996,
      "הבט": 3997,
      "דני": 3998,
      "אתרים": 3999,
      "ולמ": 4000,
      "האוכל": 4001,
      "הקול": 4002,
      "ישראלי": 4003,
      "##פיים": 4004,
      "##ופית": 4005,
      "בוד": 4006,
      "לרוב": 4007,
      "הינה": 4008,
      "מיכ": 4009,
      "##um": 4010,
      "שומ": 4011,
      "ואפילו": 4012,
      "##ביעות": 4013,
      "be": 4014,
      "2016": 4015,
      "להא": 4016,
      "פיק": 4017,
      "ובש": 4018,
      "ענק": 4019,
      "מבלי": 4020,
      "##ליף": 4021,
      "##מץ": 4022,
      "וכי": 4023,
      "לעמוד": 4024,
      "##מדו": 4025,
      "תומ": 4026,
      "##מונים": 4027,
      "ובין": 4028,
      "מחז": 4029,
      "והג": 4030,
      "הגדולה": 4031,
      "יוש": 4032,
      "##он": 4033,
      "##לאות": 4034,
      "כשא": 4035,
      "נושא": 4036,
      "##מחה": 4037,
      "ומכ": 4038,
      "ולאחר": 4039,
      "כעת": 4040,
      "שהצ": 4041,
      "האי": 4042,
      "זכות": 4043,
      "לוי": 4044,
      "ויו": 4045,
      "אחוז": 4046,
      "ולש": 4047,
      "שות": 4048,
      "##ויה": 4049,
      "##ריכה": 4050,
      "לני": 4051,
      "35": 4052,
      "לקוחות": 4053,
      "תקשורת": 4054,
      "##סל": 4055,
      "השם": 4056,
      "אלפי": 4057,
      "יחסית": 4058,
      "וזאת": 4059,
      "הוג": 4060,
      "##שבון": 4061,
      "להסת": 4062,
      "ציוד": 4063,
      "##ילוי": 4064,
      "נתניהו": 4065,
      "המופ": 4066,
      "##וונה": 4067,
      "בזכות": 4068,
      "##דיו": 4069,
      "פסיכ": 4070,
      "בשוק": 4071,
      "חרי": 4072,
      "##יתון": 4073,
      "מזרח": 4074,
      "שיצ": 4075,
      "##נגלית": 4076,
      "ספרים": 4077,
      "תז": 4078,
      "##יכנס": 4079,
      "קטנים": 4080,
      "בריאות": 4081,
      "לשע": 4082,
      "ייח": 4083,
      "##אלו": 4084,
      "##ולוגי": 4085,
      "##ווית": 4086,
      "חושב": 4087,
      "הבנק": 4088,
      "ht": 4089,
      "במצב": 4090,
      "קבלת": 4091,
      "שו": 4092,
      "##לוטין": 4093,
      "##יבוש": 4094,
      "הבריאות": 4095,
      "ראה": 4096,
      "להשת": 4097,
      "07": 4098,
      "##ורו": 4099,
      "אוט": 4100,
      "שהי": 4101,
      "##מלי": 4102,
      "195": 4103,
      "הנתבע": 4104,
      "מוצרים": 4105,
      "##ואו": 4106,
      "הביטחון": 4107,
      "##מרים": 4108,
      "לחלוטין": 4109,
      "נולד": 4110,
      "האג": 4111,
      "08": 4112,
      "בעיני": 4113,
      "##ידן": 4114,
      "##av": 4115,
      "צור": 4116,
      "בשר": 4117,
      "סד": 4118,
      "##צח": 4119,
      "לימוד": 4120,
      "נשיא": 4121,
      "##שיג": 4122,
      "רגע": 4123,
      "אינט": 4124,
      "מהת": 4125,
      "##יסוי": 4126,
      "הקש": 4127,
      "##ורש": 4128,
      "##וגים": 4129,
      "לעבודות": 4130,
      "המלך": 4131,
      "לגמרי": 4132,
      "הנק": 4133,
      "באינ": 4134,
      "שרו": 4135,
      "##דבר": 4136,
      "##פן": 4137,
      "הצבא": 4138,
      "##יאון": 4139,
      "בעצם": 4140,
      "נכנס": 4141,
      "סא": 4142,
      "רומ": 4143,
      "כדור": 4144,
      "##וגר": 4145,
      "ביניהם": 4146,
      "עומד": 4147,
      "מתאים": 4148,
      "##מתי": 4149,
      "מתחת": 4150,
      "ויק": 4151,
      "התג": 4152,
      "מתע": 4153,
      "לתח": 4154,
      "##פרסם": 4155,
      "##און": 4156,
      "לחץ": 4157,
      "##מוקרט": 4158,
      "בימים": 4159,
      "##יכון": 4160,
      "לעבור": 4161,
      "##if": 4162,
      "שמן": 4163,
      "ייש": 4164,
      "מיום": 4165,
      "בחלק": 4166,
      "פרטי": 4167,
      "הקשר": 4168,
      "נקודות": 4169,
      "ריש": 4170,
      "ארגון": 4171,
      "העלי": 4172,
      "al": 4173,
      "לציון": 4174,
      "##וניים": 4175,
      "מישהו": 4176,
      "שקלים": 4177,
      "ציון": 4178,
      "תס": 4179,
      "מלב": 4180,
      "חפ": 4181,
      "הילד": 4182,
      "בחיפה": 4183,
      "יוצא": 4184,
      "##ודנטים": 4185,
      "##שתה": 4186,
      "##בצע": 4187,
      "טובים": 4188,
      "הנשיא": 4189,
      "אודות": 4190,
      "הנתבעת": 4191,
      "הסט": 4192,
      "מכך": 4193,
      "70": 4194,
      "מאיר": 4195,
      "קומ": 4196,
      "##ועדה": 4197,
      "ליו": 4198,
      "ישנם": 4199,
      "האנשים": 4200,
      "##אורה": 4201,
      "##וונים": 4202,
      "היינו": 4203,
      "##שפ": 4204,
      "הימ": 4205,
      "##זרה": 4206,
      "המון": 4207,
      "צילום": 4208,
      "לראשונה": 4209,
      "31": 4210,
      "חוסר": 4211,
      "קטנה": 4212,
      "ומי": 4213,
      "רשות": 4214,
      "ובת": 4215,
      "בתחילת": 4216,
      "האחרונים": 4217,
      "##נטית": 4218,
      "שמה": 4219,
      "קירות": 4220,
      "הנפ": 4221,
      "ההצ": 4222,
      "##וטים": 4223,
      "עמוד": 4224,
      "##רוע": 4225,
      "##ובד": 4226,
      "מחוץ": 4227,
      "##יכים": 4228,
      "מבחינת": 4229,
      "מכיוון": 4230,
      "מוצרי": 4231,
      "נפש": 4232,
      "לדי": 4233,
      "##20": 4234,
      "ltd": 4235,
      "כיוון": 4236,
      "בניגוד": 4237,
      "האמת": 4238,
      "##בתי": 4239,
      "ברשת": 4240,
      "שהמ": 4241,
      "##סוק": 4242,
      "ספרי": 4243,
      "עלה": 4244,
      "##ולוגית": 4245,
      "הפני": 4246,
      "##דמנות": 4247,
      "##שויות": 4248,
      "##וכים": 4249,
      "##ראים": 4250,
      "ליצ": 4251,
      "ככה": 4252,
      "##og": 4253,
      "למנוע": 4254,
      "נציג": 4255,
      "ועם": 4256,
      "האנו": 4257,
      "##ונת": 4258,
      "מבקשים": 4259,
      "שאם": 4260,
      "יכולת": 4261,
      "##יסות": 4262,
      "שבהם": 4263,
      "##כנת": 4264,
      "##ודע": 4265,
      "99": 4266,
      "ביו": 4267,
      "לשלם": 4268,
      "להתע": 4269,
      "כתוצאה": 4270,
      "גרי": 4271,
      "המלא": 4272,
      "בהק": 4273,
      "הפג": 4274,
      "איס": 4275,
      "אמריק": 4276,
      "ספורט": 4277,
      "מטעם": 4278,
      "##טרף": 4279,
      "הפנים": 4280,
      "##פייה": 4281,
      "##יעי": 4282,
      "ברמה": 4283,
      "טור": 4284,
      "שבר": 4285,
      "de": 4286,
      "##af": 4287,
      "דרי": 4288,
      "פיצ": 4289,
      "ברמת": 4290,
      "##פית": 4291,
      "ביחס": 4292,
      "התביעה": 4293,
      "##ia": 4294,
      "כוחות": 4295,
      "##ov": 4296,
      "מרק": 4297,
      "שיהיה": 4298,
      "לשנות": 4299,
      "ללכת": 4300,
      "##שמים": 4301,
      "הקמת": 4302,
      "לפנות": 4303,
      "להעביר": 4304,
      "ויד": 4305,
      "##ter": 4306,
      "לחוק": 4307,
      "##לטון": 4308,
      "##גיש": 4309,
      "##ראית": 4310,
      "האינטרנט": 4311,
      "נמוך": 4312,
      "החק": 4313,
      "שמד": 4314,
      "בעיות": 4315,
      "##ליחה": 4316,
      "ביש": 4317,
      "האוויר": 4318,
      "רואים": 4319,
      "הגבוה": 4320,
      "##יור": 4321,
      "מראה": 4322,
      "ענ": 4323,
      "לבדוק": 4324,
      "הרוח": 4325,
      "באר": 4326,
      "קיר": 4327,
      "לאחרונה": 4328,
      "לעזור": 4329,
      "##יקום": 4330,
      "הגיעו": 4331,
      "בפועל": 4332,
      "לבע": 4333,
      "##מב": 4334,
      "בחברה": 4335,
      "##ומם": 4336,
      "חברים": 4337,
      "בקב": 4338,
      "מקרה": 4339,
      "##בש": 4340,
      "193": 4341,
      "##דיק": 4342,
      "הקרי": 4343,
      "לארץ": 4344,
      "בבר": 4345,
      "ראשי": 4346,
      "כללי": 4347,
      "##ניהול": 4348,
      "##פעל": 4349,
      "בעיה": 4350,
      "##ен": 4351,
      "כר": 4352,
      "מדינה": 4353,
      "וו": 4354,
      "השתת": 4355,
      "##ар": 4356,
      "המלחמה": 4357,
      "צבי": 4358,
      "הפעם": 4359,
      "צבא": 4360,
      "אט": 4361,
      "מאי": 4362,
      "נתן": 4363,
      "ללק": 4364,
      "עלינו": 4365,
      "##יהו": 4366,
      "ויא": 4367,
      "דירה": 4368,
      "מפע": 4369,
      "להתי": 4370,
      "##וונת": 4371,
      "לילה": 4372,
      "הראשונים": 4373,
      "תקופה": 4374,
      "עב": 4375,
      "##יפת": 4376,
      "##ps": 4377,
      "un": 4378,
      "אוויר": 4379,
      "משמש": 4380,
      "##ess": 4381,
      "##למת": 4382,
      "חולים": 4383,
      "##ומיני": 4384,
      "2017": 4385,
      "טרי": 4386,
      "##ופש": 4387,
      "בחודש": 4388,
      "מעוני": 4389,
      "הסכם": 4390,
      "##ידול": 4391,
      "##מוע": 4392,
      "##ואות": 4393,
      "06": 4394,
      "02": 4395,
      "גוף": 4396,
      "וני": 4397,
      "אחריות": 4398,
      "##טרת": 4399,
      "##יקטים": 4400,
      "##יתו": 4401,
      "אירועים": 4402,
      "לציין": 4403,
      "ומג": 4404,
      "##מדה": 4405,
      "##נרת": 4406,
      "שמואל": 4407,
      "##ik": 4408,
      "מהווה": 4409,
      "לחזור": 4410,
      "פתי": 4411,
      "##וטי": 4412,
      "הצה": 4413,
      "והיה": 4414,
      "מרי": 4415,
      "שאלה": 4416,
      "השאלה": 4417,
      "שיא": 4418,
      "שכבר": 4419,
      "קבע": 4420,
      "אהבה": 4421,
      "המערכת": 4422,
      "עול": 4423,
      "באוניברס": 4424,
      "מאחר": 4425,
      "as": 4426,
      "שצריך": 4427,
      "לשעבר": 4428,
      "לאירוע": 4429,
      "בעלת": 4430,
      "##יתכן": 4431,
      "התר": 4432,
      "בשעה": 4433,
      "בכפר": 4434,
      "מלון": 4435,
      "לאתר": 4436,
      "01": 4437,
      "80": 4438,
      "מחקר": 4439,
      "מחירי": 4440,
      "גרמ": 4441,
      "תקווה": 4442,
      "##ומד": 4443,
      "הנכ": 4444,
      "לפעמים": 4445,
      "סוכ": 4446,
      "בסופו": 4447,
      "##שן": 4448,
      "##גנון": 4449,
      "הסיפור": 4450,
      "הולך": 4451,
      "קרוב": 4452,
      "##ודעה": 4453,
      "ימ": 4454,
      "דמי": 4455,
      "##יקת": 4456,
      "##ah": 4457,
      "##בס": 4458,
      "מסוים": 4459,
      "##ירון": 4460,
      "##יבו": 4461,
      "##לכה": 4462,
      "ביה": 4463,
      "קני": 4464,
      "##רוכה": 4465,
      "ויע": 4466,
      "זכה": 4467,
      "הבעיה": 4468,
      "##ורמים": 4469,
      "##יבוץ": 4470,
      "שהס": 4471,
      "העיק": 4472,
      "##יתות": 4473,
      "##דיים": 4474,
      "##סום": 4475,
      "##כירה": 4476,
      "34": 4477,
      "2010": 4478,
      "##יסת": 4479,
      "##חלטה": 4480,
      "se": 4481,
      "##ימן": 4482,
      "להד": 4483,
      "##רגל": 4484,
      "שחר": 4485,
      "##יתונ": 4486,
      "##יטל": 4487,
      "התקשורת": 4488,
      "ביחד": 4489,
      "יורק": 4490,
      "##פקט": 4491,
      "##ינון": 4492,
      "בחי": 4493,
      "מעלה": 4494,
      "הטר": 4495,
      "נמו": 4496,
      "קיימת": 4497,
      "אלב": 4498,
      "##צעים": 4499,
      "##פחת": 4500,
      "הפרי": 4501,
      "המוב": 4502,
      "משר": 4503,
      "צפו": 4504,
      "המחשב": 4505,
      "##ופל": 4506,
      "##פטמבר": 4507,
      "##וגוסט": 4508,
      "שכר": 4509,
      "חשבון": 4510,
      "##מדת": 4511,
      "אמצ": 4512,
      "פינ": 4513,
      "בכדי": 4514,
      "הפוליט": 4515,
      "שעל": 4516,
      "הצורך": 4517,
      "המפ": 4518,
      "חט": 4519,
      "2013": 4520,
      "##זב": 4521,
      "45": 4522,
      "במערכת": 4523,
      "חלב": 4524,
      "##מם": 4525,
      "חיי": 4526,
      "##סיה": 4527,
      "גורם": 4528,
      "##יונ": 4529,
      "##יבוי": 4530,
      "להשיג": 4531,
      "##ילוב": 4532,
      "ואילו": 4533,
      "##ינן": 4534,
      "##סקים": 4535,
      "##ונד": 4536,
      "שעבר": 4537,
      "##פך": 4538,
      "##פחות": 4539,
      "דיס": 4540,
      "מעצ": 4541,
      "שאפשר": 4542,
      "מבוס": 4543,
      "השלישי": 4544,
      "##וין": 4545,
      "##ציפ": 4546,
      "חינם": 4547,
      "וחצי": 4548,
      "il": 4549,
      "##מרת": 4550,
      "##פסת": 4551,
      "החבר": 4552,
      "קה": 4553,
      "למא": 4554,
      "##צית": 4555,
      "מפר": 4556,
      "פרח": 4557,
      "יתר": 4558,
      "הכר": 4559,
      "הבל": 4560,
      "##ор": 4561,
      "משמעותי": 4562,
      "##ומדים": 4563,
      "נזק": 4564,
      "שמס": 4565,
      "הפך": 4566,
      "מדינות": 4567,
      "ההכ": 4568,
      "כזו": 4569,
      "דק": 4570,
      "עורך": 4571,
      "##פיין": 4572,
      "##ועד": 4573,
      "##ולוגיות": 4574,
      "בטוח": 4575,
      "מידי": 4576,
      "##רחק": 4577,
      "השרון": 4578,
      "כז": 4579,
      "2015": 4580,
      "שטח": 4581,
      "האס": 4582,
      "##מינה": 4583,
      "החליט": 4584,
      "##תיע": 4585,
      "דרכים": 4586,
      "בוט": 4587,
      "האש": 4588,
      "היהודית": 4589,
      "##בעות": 4590,
      "החמ": 4591,
      "רקע": 4592,
      "מזון": 4593,
      "##ורד": 4594,
      "מדר": 4595,
      "אומרים": 4596,
      "להפוך": 4597,
      "##ine": 4598,
      "##שטיין": 4599,
      "מו": 4600,
      "חומר": 4601,
      "##נכ": 4602,
      "וכמ": 4603,
      "בחר": 4604,
      "כולו": 4605,
      "שמצ": 4606,
      "סדר": 4607,
      "2014": 4608,
      "ניו": 4609,
      "##ат": 4610,
      "##שום": 4611,
      "מגד": 4612,
      "מתקני": 4613,
      "והכ": 4614,
      "המשטרה": 4615,
      "נשא": 4616,
      "##וקס": 4617,
      "##כשיר": 4618,
      "המי": 4619,
      "##יבוד": 4620,
      "בבע": 4621,
      "##יעין": 4622,
      "##ומיניום": 4623,
      "38": 4624,
      "ביטוי": 4625,
      "אמת": 4626,
      "התרבות": 4627,
      "הלקוח": 4628,
      "##הבה": 4629,
      "המנה": 4630,
      "##וקטוב": 4631,
      "##טע": 4632,
      "##יעור": 4633,
      "מעין": 4634,
      "בתא": 4635,
      "בתור": 4636,
      "נתונים": 4637,
      "av": 4638,
      "04": 4639,
      "בשנות": 4640,
      "ויה": 4641,
      "##מוס": 4642,
      "##סקה": 4643,
      "##יטר": 4644,
      "##שיית": 4645,
      "##אס": 4646,
      "נמצאים": 4647,
      "והב": 4648,
      "לבק": 4649,
      "##לוקת": 4650,
      "מעולם": 4651,
      "בארה": 4652,
      "אומרת": 4653,
      "מקצועית": 4654,
      "קלא": 4655,
      "לעצמ": 4656,
      "##וקטובר": 4657,
      "##יכרון": 4658,
      "צינורות": 4659,
      "הפלסטי": 4660,
      "ובח": 4661,
      "##ובמבר": 4662,
      "##רוק": 4663,
      "דם": 4664,
      "הקור": 4665,
      "##ינר": 4666,
      "##מדים": 4667,
      "ברגע": 4668,
      "שאינם": 4669,
      "מהה": 4670,
      "מועד": 4671,
      "##ועה": 4672,
      "שווה": 4673,
      "בחיים": 4674,
      "המלון": 4675,
      "בדבר": 4676,
      "מתכ": 4677,
      "עוצ": 4678,
      "בתוכ": 4679,
      "##באי": 4680,
      "במקרים": 4681,
      "ליום": 4682,
      "היות": 4683,
      "הנע": 4684,
      "36": 4685,
      "##ет": 4686,
      "חזק": 4687,
      "פרסום": 4688,
      "לבנות": 4689,
      "##רני": 4690,
      "באיר": 4691,
      "בור": 4692,
      "htt": 4693,
      "להתמודד": 4694,
      "דף": 4695,
      "פלדה": 4696,
      "שהש": 4697,
      "תחום": 4698,
      "בתקופה": 4699,
      "התחת": 4700,
      "לרכוש": 4701,
      "מעניין": 4702,
      "מקבל": 4703,
      "תיקון": 4704,
      "con": 4705,
      "##ce": 4706,
      "להחז": 4707,
      "לעיתים": 4708,
      "הנאשם": 4709,
      "##יפורים": 4710,
      "##ילית": 4711,
      "קורה": 4712,
      "##וקף": 4713,
      "##ap": 4714,
      "ממצ": 4715,
      "קפה": 4716,
      "ורי": 4717,
      "en": 4718,
      "שמות": 4719,
      "תשלום": 4720,
      "בצפון": 4721,
      "לגרום": 4722,
      "בול": 4723,
      "##תיקה": 4724,
      "##שאים": 4725,
      "מחפ": 4726,
      "הרפוא": 4727,
      "נבח": 4728,
      "מרכ": 4729,
      "במהירות": 4730,
      "##גרים": 4731,
      "העול": 4732,
      "הפת": 4733,
      "לכתוב": 4734,
      "קרן": 4735,
      "##ותי": 4736,
      "##ילון": 4737,
      "רו": 4738,
      "ארבע": 4739,
      "##ייב": 4740,
      "##מנט": 4741,
      "ועדת": 4742,
      "מרד": 4743,
      "##שרי": 4744,
      "קטנות": 4745,
      "עשוי": 4746,
      "היחידה": 4747,
      "##ri": 4748,
      "ממה": 4749,
      "יהוה": 4750,
      "##ברר": 4751,
      "המנו": 4752,
      "במקביל": 4753,
      "תד": 4754,
      "##ורט": 4755,
      "הבאה": 4756,
      "##מפ": 4757,
      "לקנות": 4758,
      "הוש": 4759,
      "שדה": 4760,
      "מספק": 4761,
      "יכולות": 4762,
      "הבינלא": 4763,
      "##שיות": 4764,
      "מתן": 4765,
      "וכד": 4766,
      "ארה": 4767,
      "בלא": 4768,
      "##יונית": 4769,
      "חמש": 4770,
      "מגיעים": 4771,
      "ניתוח": 4772,
      "השיר": 4773,
      "תנאי": 4774,
      "##פרו": 4775,
      "חשיבות": 4776,
      "העור": 4777,
      "בסך": 4778,
      "הנד": 4779,
      "##וסיה": 4780,
      "בנס": 4781,
      "האזור": 4782,
      "ולב": 4783,
      "##ודו": 4784,
      "העובדים": 4785,
      "##רגיש": 4786,
      "לחשוב": 4787,
      "נדר": 4788,
      "##ואלי": 4789,
      "##אימה": 4790,
      "לטובת": 4791,
      "תוצאות": 4792,
      "##רוג": 4793,
      "המבקש": 4794,
      "##תחיל": 4795,
      "האזרח": 4796,
      "כלים": 4797,
      "33": 4798,
      "##כלים": 4799,
      "##תונה": 4800,
      "נוה": 4801,
      "הלח": 4802,
      "לרבות": 4803,
      "שאת": 4804,
      "פש": 4805,
      "חובה": 4806,
      "מנג": 4807,
      "ארצות": 4808,
      "משיבים": 4809,
      "מנסה": 4810,
      "##ופעה": 4811,
      "שאלות": 4812,
      "נוצ": 4813,
      "למדי": 4814,
      "ראו": 4815,
      "אירופה": 4816,
      "##יקור": 4817,
      "##וכית": 4818,
      "32": 4819,
      "יצירת": 4820,
      "לספק": 4821,
      "שאר": 4822,
      "החר": 4823,
      "##לילה": 4824,
      "קרב": 4825,
      "##ונק": 4826,
      "##סו": 4827,
      "בקרי": 4828,
      "להיש": 4829,
      "אוב": 4830,
      "##ew": 4831,
      "בבל": 4832,
      "##ard": 4833,
      "ממלי": 4834,
      "סופ": 4835,
      "מבחינה": 4836,
      "u05d": 4837,
      "להוציא": 4838,
      "##ron": 4839,
      "ומד": 4840,
      "בתע": 4841,
      "החלק": 4842,
      "500": 4843,
      "לאנשים": 4844,
      "##טג": 4845,
      "##פרה": 4846,
      "המזרח": 4847,
      "ובס": 4848,
      "בכת": 4849,
      "לעתים": 4850,
      "##ביה": 4851,
      "בשטח": 4852,
      "מורכ": 4853,
      "ממע": 4854,
      "מבנה": 4855,
      "מקומות": 4856,
      "אינטרנט": 4857,
      "ro": 4858,
      "##ולן": 4859,
      "היס": 4860,
      "ניר": 4861,
      "העברית": 4862,
      "ביקורת": 4863,
      "יוכל": 4864,
      "הימים": 4865,
      "משמעותית": 4866,
      "שער": 4867,
      "##דוד": 4868,
      "דת": 4869,
      "באינטרנט": 4870,
      "מלך": 4871,
      "##יטי": 4872,
      "##אג": 4873,
      "מעני": 4874,
      "איתו": 4875,
      "ותק": 4876,
      "##יתם": 4877,
      "ניש": 4878,
      "##ки": 4879,
      "##מותה": 4880,
      "##ודאי": 4881,
      "שיב": 4882,
      "##ופס": 4883,
      "לאל": 4884,
      "##טרק": 4885,
      "##רחש": 4886,
      "הגרמ": 4887,
      "ארוך": 4888,
      "סע": 4889,
      "##וטנצ": 4890,
      "השחק": 4891,
      "##צמבר": 4892,
      "בפע": 4893,
      "אסור": 4894,
      "##חתי": 4895,
      "##יתוף": 4896,
      "בוקר": 4897,
      "##יקו": 4898,
      "##עתו": 4899,
      "##גם": 4900,
      "הפועל": 4901,
      "##יצות": 4902,
      "הלו": 4903,
      "הביא": 4904,
      "לספר": 4905,
      "עני": 4906,
      "##רין": 4907,
      "##טרות": 4908,
      "לטיפול": 4909,
      "##כלו": 4910,
      "##לבום": 4911,
      "נור": 4912,
      "לתל": 4913,
      "גורמים": 4914,
      "אוני": 4915,
      "להיכנס": 4916,
      "להוסיף": 4917,
      "עשר": 4918,
      "מתחיל": 4919,
      "תואר": 4920,
      "במשחק": 4921,
      "יחסי": 4922,
      "הסיבה": 4923,
      "התנועה": 4924,
      "##כנו": 4925,
      "טבעי": 4926,
      "##יצים": 4927,
      "פלא": 4928,
      "##יריית": 4929,
      "##ריון": 4930,
      "##ילא": 4931,
      "ואמר": 4932,
      "פיז": 4933,
      "הקי": 4934,
      "ובל": 4935,
      "ברוך": 4936,
      "הביטוח": 4937,
      "##ולל": 4938,
      "שאנו": 4939,
      "פוג": 4940,
      "דירות": 4941,
      "מנכ": 4942,
      "בוח": 4943,
      "##פריה": 4944,
      "אתמול": 4945,
      "##סטיבל": 4946,
      "##ילויות": 4947,
      "ומב": 4948,
      "המות": 4949,
      "אישה": 4950,
      "פרטים": 4951,
      "שמונה": 4952,
      "אנט": 4953,
      "טרא": 4954,
      "##אלות": 4955,
      "שלישי": 4956,
      "הבסיס": 4957,
      "מעב": 4958,
      "תמיכה": 4959,
      "##מנת": 4960,
      "##נחה": 4961,
      "לתוך": 4962,
      "לקב": 4963,
      "סיר": 4964,
      "##וסקים": 4965,
      "ההורים": 4966,
      "משחקים": 4967,
      "עשרה": 4968,
      "חינוך": 4969,
      "##חרי": 4970,
      "מיוחדת": 4971,
      "th": 4972,
      "##לפון": 4973,
      "היחיד": 4974,
      "בינלא": 4975,
      "שיכ": 4976,
      "בהכ": 4977,
      "##נסו": 4978,
      "שיעור": 4979,
      "קרית": 4980,
      "שחור": 4981,
      "##מוש": 4982,
      "##ריכים": 4983,
      "sp": 4984,
      "הרשמת": 4985,
      "דלתות": 4986,
      "להימ": 4987,
      "שהה": 4988,
      "ch": 4989,
      "שוט": 4990,
      "החברות": 4991,
      "שבין": 4992,
      "אישור": 4993,
      "2009": 4994,
      "2008": 4995,
      "מאוחר": 4996,
      "מין": 4997,
      "הרשם": 4998,
      "שנא": 4999,
      "ולת": 5000,
      "כוס": 5001,
      "בנוגע": 5002,
      "##סטית": 5003,
      "בצד": 5004,
      "דח": 5005,
      "הנית": 5006,
      "##גוריה": 5007,
      "לפעול": 5008,
      "הכב": 5009,
      "##יונים": 5010,
      "במדינה": 5011,
      "היק": 5012,
      "במטרה": 5013,
      "תקופת": 5014,
      "קבוצות": 5015,
      "##נטיים": 5016,
      "שמדובר": 5017,
      "##ליכים": 5018,
      "פעולות": 5019,
      "המוצר": 5020,
      "מביא": 5021,
      "רוז": 5022,
      "##ירייה": 5023,
      "וכמובן": 5024,
      "##יסוק": 5025,
      "##דית": 5026,
      "המור": 5027,
      "##פול": 5028,
      "הלה": 5029,
      "הנוכ": 5030,
      "##ושבים": 5031,
      "בסדר": 5032,
      "עי": 5033,
      "מייצ": 5034,
      "##טחים": 5035,
      "יוע": 5036,
      "##and": 5037,
      "מאחורי": 5038,
      "המחוזי": 5039,
      "אליהם": 5040,
      "חייו": 5041,
      "##גיעו": 5042,
      "לשחק": 5043,
      "##од": 5044,
      "לאפשר": 5045,
      "ויותר": 5046,
      "##וויות": 5047,
      "מיוחדים": 5048,
      "##10": 5049,
      "##ка": 5050,
      "אמנות": 5051,
      "אלקט": 5052,
      "##כתה": 5053,
      "95": 5054,
      "שגר": 5055,
      "הגר": 5056,
      "##op": 5057,
      "לנת": 5058,
      "הומ": 5059,
      "##ענה": 5060,
      "##אק": 5061,
      "הגנה": 5062,
      "הארגון": 5063,
      "ar": 5064,
      "לאכול": 5065,
      "דן": 5066,
      "לנק": 5067,
      "##בטיח": 5068,
      "אוס": 5069,
      "##ובלים": 5070,
      "on": 5071,
      "קרה": 5072,
      "משתמשים": 5073,
      "המוח": 5074,
      "##יתן": 5075,
      "##ושות": 5076,
      "ופר": 5077,
      "##דימה": 5078,
      "שנתיים": 5079,
      "##ולו": 5080,
      "מהד": 5081,
      "אקד": 5082,
      "##ואב": 5083,
      "השאר": 5084,
      "העונה": 5085,
      "השוק": 5086,
      "##ובלת": 5087,
      "##נז": 5088,
      "המציאות": 5089,
      "מדו": 5090,
      "המועצה": 5091,
      "עיק": 5092,
      "##יעת": 5093,
      "תכנית": 5094,
      "לשימוש": 5095,
      "תמונה": 5096,
      "שלב": 5097,
      "אוהב": 5098,
      "##פואה": 5099,
      "הגדולים": 5100,
      "מעשה": 5101,
      "האת": 5102,
      "צעירים": 5103,
      "אבו": 5104,
      "ברוב": 5105,
      "מהיר": 5106,
      "במספר": 5107,
      "qu": 5108,
      "ליש": 5109,
      "##מאס": 5110,
      "##כנים": 5111,
      "##זית": 5112,
      "המיו": 5113,
      "מעולה": 5114,
      "##יגים": 5115,
      "##זות": 5116,
      "##לטות": 5117,
      "ובו": 5118,
      "מרת": 5119,
      "תוכן": 5120,
      "##פקה": 5121,
      "למג": 5122,
      "טעם": 5123,
      "##יקות": 5124,
      "##ok": 5125,
      "ממשלת": 5126,
      "ונת": 5127,
      "והד": 5128,
      "פתרון": 5129,
      "ובכך": 5130,
      "רי": 5131,
      "האב": 5132,
      "##וצת": 5133,
      "ואולי": 5134,
      "כלום": 5135,
      "נקבע": 5136,
      "ויח": 5137,
      "הפעילות": 5138,
      "כשהוא": 5139,
      "האנ": 5140,
      "מחשבים": 5141,
      "להגיד": 5142,
      "ראוי": 5143,
      "ברחוב": 5144,
      "הקל": 5145,
      "רמ": 5146,
      "אמרו": 5147,
      "##יכת": 5148,
      "##כתי": 5149,
      "##ודד": 5150,
      "היל": 5151,
      "הבוקר": 5152,
      "חזר": 5153,
      "יר": 5154,
      "לרי": 5155,
      "ברצ": 5156,
      "מחק": 5157,
      "##לויות": 5158,
      "לחיות": 5159,
      "חזרה": 5160,
      "דב": 5161,
      "היב": 5162,
      "קונ": 5163,
      "##בקש": 5164,
      "##יכך": 5165,
      "חייבים": 5166,
      "בניית": 5167,
      "לכאורה": 5168,
      "צרפת": 5169,
      "בשני": 5170,
      "שירותים": 5171,
      "חסר": 5172,
      "הכס": 5173,
      "ההז": 5174,
      "קרקע": 5175,
      "בקלות": 5176,
      "##יער": 5177,
      "ארבעה": 5178,
      "שיג": 5179,
      "הבאים": 5180,
      "בנת": 5181,
      "##נשי": 5182,
      "##כנולוגיה": 5183,
      "הנושא": 5184,
      "##פלגה": 5185,
      "גברים": 5186,
      "נותן": 5187,
      "במשרד": 5188,
      "##יביות": 5189,
      "בהס": 5190,
      "מדבר": 5191,
      "עג": 5192,
      "ברג": 5193,
      "##מום": 5194,
      "ורו": 5195,
      "##אור": 5196,
      "##ish": 5197,
      "le": 5198,
      "אביו": 5199,
      "מהן": 5200,
      "מיר": 5201,
      "##וקות": 5202,
      "ובק": 5203,
      "המתח": 5204,
      "הלילה": 5205,
      "מבצע": 5206,
      "והמש": 5207,
      "העניין": 5208,
      "להגד": 5209,
      "צעיר": 5210,
      "##טיות": 5211,
      "##ואן": 5212,
      "מפת": 5213,
      "רצון": 5214,
      "##oc": 5215,
      "לנס": 5216,
      "##צרת": 5217,
      "##דיין": 5218,
      "##למים": 5219,
      "אמרה": 5220,
      "הוס": 5221,
      "##זין": 5222,
      "pro": 5223,
      "חור": 5224,
      "הלימודים": 5225,
      "ובני": 5226,
      "המחקר": 5227,
      "הדת": 5228,
      "המחיר": 5229,
      "##נדי": 5230,
      "בבוקר": 5231,
      "##ילוס": 5232,
      "קיימים": 5233,
      "השונות": 5234,
      "להתחיל": 5235,
      "לשת": 5236,
      "כשר": 5237,
      "##מאות": 5238,
      "##יפו": 5239,
      "סביר": 5240,
      "בתפקיד": 5241,
      "מוצר": 5242,
      "קבל": 5243,
      "האקד": 5244,
      "המומ": 5245,
      "המשתמש": 5246,
      "הגל": 5247,
      "ישר": 5248,
      "שיווק": 5249,
      "##אלית": 5250,
      "בכתב": 5251,
      "הקהילה": 5252,
      "##וסייה": 5253,
      "##עימה": 5254,
      "במאי": 5255,
      "##est": 5256,
      "החלו": 5257,
      "##ובב": 5258,
      "בבתי": 5259,
      "##ud": 5260,
      "ממק": 5261,
      "##בלה": 5262,
      "האו": 5263,
      "וול": 5264,
      "##מתו": 5265,
      "##ופאים": 5266,
      "##וטה": 5267,
      "she": 5268,
      "מימ": 5269,
      "המשק": 5270,
      "##ידוד": 5271,
      "הרשות": 5272,
      "ניקוי": 5273,
      "אדום": 5274,
      "אוניברס": 5275,
      "החלה": 5276,
      "##חרר": 5277,
      "מיליארד": 5278,
      "התוכנית": 5279,
      "המפור": 5280,
      "ריצוף": 5281,
      "##ברואר": 5282,
      "סתם": 5283,
      "עמד": 5284,
      "##טיים": 5285,
      "##ארק": 5286,
      "באש": 5287,
      "והנה": 5288,
      "הכסף": 5289,
      "##יווק": 5290,
      "##בריה": 5291,
      "מציע": 5292,
      "מתקד": 5293,
      "תושבי": 5294,
      "##לטים": 5295,
      "ראשית": 5296,
      "העת": 5297,
      "##לאי": 5298,
      "##עזר": 5299,
      "גופ": 5300,
      "הית": 5301,
      "מטע": 5302,
      "כחלק": 5303,
      "##ירתו": 5304,
      "בחדר": 5305,
      "זר": 5306,
      "אבא": 5307,
      "עובר": 5308,
      "##אשר": 5309,
      "##נקים": 5310,
      "אמור": 5311,
      "tel": 5312,
      "לחש": 5313,
      "##יכו": 5314,
      "ובעיקר": 5315,
      "המבנה": 5316,
      "##דיקה": 5317,
      "יודעת": 5318,
      "##יתית": 5319,
      "קבוצה": 5320,
      "##לאים": 5321,
      "מקבלים": 5322,
      "קפ": 5323,
      "הסביבה": 5324,
      "##נף": 5325,
      "##ליחו": 5326,
      "הוועדה": 5327,
      "דמות": 5328,
      "יסוד": 5329,
      "לאדם": 5330,
      "אילן": 5331,
      "שירים": 5332,
      "לטי": 5333,
      "השו": 5334,
      "##ub": 5335,
      "זוהי": 5336,
      "##ונדון": 5337,
      "בנות": 5338,
      "ורג": 5339,
      "מדע": 5340,
      "##לאה": 5341,
      "אלוהים": 5342,
      "מבר": 5343,
      "39": 5344,
      "סיבה": 5345,
      "תי": 5346,
      "אמיתי": 5347,
      "להשק": 5348,
      "##נדה": 5349,
      "לשמוע": 5350,
      "##ביעת": 5351,
      "מצרים": 5352,
      "##חל": 5353,
      "לשא": 5354,
      "ממוק": 5355,
      "נאמר": 5356,
      "##לחמת": 5357,
      "מהצ": 5358,
      "מבע": 5359,
      "##לטת": 5360,
      "##ינית": 5361,
      "##ונש": 5362,
      "##כרת": 5363,
      "צומת": 5364,
      "מהפ": 5365,
      "משול": 5366,
      "משנת": 5367,
      "אוטומ": 5368,
      "##ובדים": 5369,
      "סופר": 5370,
      "##ודר": 5371,
      "המבקשת": 5372,
      "לרו": 5373,
      "##פוך": 5374,
      "בתקופת": 5375,
      "וית": 5376,
      "חיוב": 5377,
      "##ech": 5378,
      "שלם": 5379,
      "2007": 5380,
      "לימודי": 5381,
      "##זרו": 5382,
      "דיג": 5383,
      "מרכזי": 5384,
      "##50": 5385,
      "נמצאת": 5386,
      "עבודת": 5387,
      "##ענו": 5388,
      "##ель": 5389,
      "העיקר": 5390,
      "מלבד": 5391,
      "הטובה": 5392,
      "שבועות": 5393,
      "בפתח": 5394,
      "ייתכן": 5395,
      "##למות": 5396,
      "אלומיניום": 5397,
      "##ימר": 5398,
      "2004": 5399,
      "הולדת": 5400,
      "שהן": 5401,
      "##עתם": 5402,
      "בימי": 5403,
      "ישירות": 5404,
      "כולנו": 5405,
      "ישנה": 5406,
      "ליהנות": 5407,
      "##וברת": 5408,
      "##ts": 5409,
      "הכולל": 5410,
      "הפוע": 5411,
      "מבקש": 5412,
      "##מיר": 5413,
      "קלה": 5414,
      "מענה": 5415,
      "כשל": 5416,
      "סבא": 5417,
      "נאל": 5418,
      "##גובה": 5419,
      "##סן": 5420,
      "לקבלת": 5421,
      "##דיות": 5422,
      "##ריע": 5423,
      "נפג": 5424,
      "##מצאו": 5425,
      "##ip": 5426,
      "##ולדות": 5427,
      "חוזר": 5428,
      "הכות": 5429,
      "פתרונות": 5430,
      "עתי": 5431,
      "לעיל": 5432,
      "הפק": 5433,
      "##וגיות": 5434,
      "להן": 5435,
      "##זורים": 5436,
      "שמעון": 5437,
      "להר": 5438,
      "הצעת": 5439,
      "סכום": 5440,
      "ולהת": 5441,
      "for": 5442,
      "תשובה": 5443,
      "למצב": 5444,
      "איפה": 5445,
      "מסך": 5446,
      "##וטל": 5447,
      "המשרד": 5448,
      "להכיר": 5449,
      "##קין": 5450,
      "שיתוף": 5451,
      "##ark": 5452,
      "קוב": 5453,
      "ראי": 5454,
      "בארצות": 5455,
      "מילים": 5456,
      "##ננה": 5457,
      "רפואי": 5458,
      "במד": 5459,
      "הצליח": 5460,
      "##שיים": 5461,
      "אורי": 5462,
      "##זיה": 5463,
      "אליהו": 5464,
      "מבנים": 5465,
      "חוות": 5466,
      "הנתונים": 5467,
      "##שבת": 5468,
      "חצ": 5469,
      "המוק": 5470,
      "גישה": 5471,
      "בעלות": 5472,
      "עיני": 5473,
      "אמא": 5474,
      "משפחות": 5475,
      "בחשבון": 5476,
      "הקהל": 5477,
      "לנסות": 5478,
      "##וגות": 5479,
      "נכונה": 5480,
      "במחיר": 5481,
      "ארוכה": 5482,
      "שבח": 5483,
      "##נהג": 5484,
      "192": 5485,
      "בדרום": 5486,
      "נפת": 5487,
      "עונה": 5488,
      "##נאות": 5489,
      "ריק": 5490,
      "באשר": 5491,
      "שחי": 5492,
      "##uuuuuuuu": 5493,
      "יין": 5494,
      "##זרי": 5495,
      "לשים": 5496,
      "##יבא": 5497,
      "המאפשר": 5498,
      "התייחס": 5499,
      "זיה": 5500,
      "##נהלות": 5501,
      "ראיתי": 5502,
      "##ies": 5503,
      "בינ": 5504,
      "##יגות": 5505,
      "לסייע": 5506,
      "מסמכים": 5507,
      "קורס": 5508,
      "##נוק": 5509,
      "לגלות": 5510,
      "##ינס": 5511,
      "בתהליך": 5512,
      "איל": 5513,
      "זהב": 5514,
      "שינה": 5515,
      "מדיניות": 5516,
      "##חית": 5517,
      "תרגום": 5518,
      "הבחירות": 5519,
      "שינויים": 5520,
      "##ви": 5521,
      "משמ": 5522,
      "##כרו": 5523,
      "##צעת": 5524,
      "עלות": 5525,
      "ונש": 5526,
      "מפתח": 5527,
      "נוער": 5528,
      "סימן": 5529,
      "לתי": 5530,
      "##לתה": 5531,
      "ההחלטה": 5532,
      "היכולת": 5533,
      "##נור": 5534,
      "מבח": 5535,
      "##ле": 5536,
      "ורצ": 5537,
      "נוג": 5538,
      "##בחן": 5539,
      "מכפר": 5540,
      "##יוב": 5541,
      "באמצע": 5542,
      "ww": 5543,
      "ממח": 5544,
      "הגיעה": 5545,
      "##והר": 5546,
      "אופי": 5547,
      "לקבוע": 5548,
      "##נב": 5549,
      "תוכל": 5550,
      "עתה": 5551,
      "##ירא": 5552,
      "במדי": 5553,
      "##גלה": 5554,
      "##קן": 5555,
      "רשתות": 5556,
      "שרק": 5557,
      "לפתוח": 5558,
      "##ונם": 5559,
      "גדולות": 5560,
      "תלוי": 5561,
      "שיחה": 5562,
      "הצוות": 5563,
      "במת": 5564,
      "באח": 5565,
      "ושוב": 5566,
      "מורכב": 5567,
      "גיא": 5568,
      "בדיקות": 5569,
      "שיער": 5570,
      "##וניה": 5571,
      "##ושע": 5572,
      "##זת": 5573,
      "##ya": 5574,
      "##מידי": 5575,
      "שטר": 5576,
      "ייעוץ": 5577,
      "שנש": 5578,
      "שהג": 5579,
      "פגיעה": 5580,
      "לממש": 5581,
      "לדוגמה": 5582,
      "##ריכת": 5583,
      "משקל": 5584,
      "##der": 5585,
      "##סיון": 5586,
      "##רר": 5587,
      "להציג": 5588,
      "הראשי": 5589,
      "האוצר": 5590,
      "37": 5591,
      "ניג": 5592,
      "##11": 5593,
      "להניח": 5594,
      "בנימין": 5595,
      "לשלב": 5596,
      "כותב": 5597,
      "עיריית": 5598,
      "המשות": 5599,
      "מוקד": 5600,
      "הרשת": 5601,
      "יוני": 5602,
      "חיפוש": 5603,
      "בראשית": 5604,
      "נחש": 5605,
      "הדיון": 5606,
      "48": 5607,
      "##תקיים": 5608,
      "המיוחד": 5609,
      "לחלק": 5610,
      "בעבודה": 5611,
      "מאל": 5612,
      "אלמ": 5613,
      "לתע": 5614,
      "ירד": 5615,
      "ייצ": 5616,
      "הלאומי": 5617,
      "##ice": 5618,
      "##ולחן": 5619,
      "הנשים": 5620,
      "מותר": 5621,
      "האישי": 5622,
      "##ан": 5623,
      "נקרא": 5624,
      "##פקד": 5625,
      "יצר": 5626,
      "הוראות": 5627,
      "הפלי": 5628,
      "בבח": 5629,
      "איב": 5630,
      "##כרה": 5631,
      "באל": 5632,
      "הנוס": 5633,
      "באירופה": 5634,
      "לחברה": 5635,
      "הגז": 5636,
      "שוא": 5637,
      "בטר": 5638,
      "##כונת": 5639,
      "והט": 5640,
      "##מרה": 5641,
      "הזדמנות": 5642,
      "באה": 5643,
      "שנח": 5644,
      "בכיר": 5645,
      "כלשהו": 5646,
      "לעבר": 5647,
      "ex": 5648,
      "מערב": 5649,
      "ליר": 5650,
      "נוח": 5651,
      "מעמד": 5652,
      "or": 5653,
      "להתא": 5654,
      "שימו": 5655,
      "לאחד": 5656,
      "יוח": 5657,
      "##נטיות": 5658,
      "באחד": 5659,
      "תנועה": 5660,
      "האפ": 5661,
      "בשירות": 5662,
      "ונס": 5663,
      "התעופה": 5664,
      "##נגדות": 5665,
      "2006": 5666,
      "42": 5667,
      "אגב": 5668,
      "נו": 5669,
      "מדהים": 5670,
      "טרם": 5671,
      "##מדות": 5672,
      "##רער": 5673,
      "הנראה": 5674,
      "מרדכי": 5675,
      "תור": 5676,
      "לכיוון": 5677,
      "ראשונה": 5678,
      "ליט": 5679,
      "זכר": 5680,
      "שהופ": 5681,
      "טיח": 5682,
      "##ענות": 5683,
      "##שט": 5684,
      "www": 5685,
      "הביתה": 5686,
      "פות": 5687,
      "לכבוד": 5688,
      "ותח": 5689,
      "לרשות": 5690,
      "באור": 5691,
      "כוללת": 5692,
      "סיום": 5693,
      "הרעיון": 5694,
      "המרכזי": 5695,
      "אבט": 5696,
      "300": 5697,
      "יוכלו": 5698,
      "2000": 5699,
      "##ידום": 5700,
      "לבוא": 5701,
      "שור": 5702,
      "נשמע": 5703,
      "ביא": 5704,
      "בגד": 5705,
      "בפעם": 5706,
      "אלון": 5707,
      "במט": 5708,
      "מכבי": 5709,
      "שישי": 5710,
      "האפשרות": 5711,
      "##גלים": 5712,
      "##יקורת": 5713,
      "התנהגות": 5714,
      "חיו": 5715,
      "##יכם": 5716,
      "אימ": 5717,
      "##מצאים": 5718,
      "מאפשרת": 5719,
      "שיטת": 5720,
      "האישה": 5721,
      "it": 5722,
      "פתא": 5723,
      "ובמק": 5724,
      "שכתב": 5725,
      "שהייתה": 5726,
      "מושלם": 5727,
      "##שבה": 5728,
      "##נסיה": 5729,
      "שילוב": 5730,
      "##לקט": 5731,
      "עלול": 5732,
      "##מונת": 5733,
      "אסטר": 5734,
      "##מודדות": 5735,
      "נעים": 5736,
      "נר": 5737,
      "שערים": 5738,
      "שרת": 5739,
      "פרטיים": 5740,
      "בבני": 5741,
      "באנגלית": 5742,
      "המדי": 5743,
      "דניאל": 5744,
      "##12": 5745,
      "שתה": 5746,
      "##וכב": 5747,
      "מצווה": 5748,
      "מזל": 5749,
      "לאי": 5750,
      "ישראלים": 5751,
      "מרבית": 5752,
      "פרויקט": 5753,
      "במקומות": 5754,
      "אפשרויות": 5755,
      "ונע": 5756,
      "מחו": 5757,
      "אלינו": 5758,
      "התיק": 5759,
      "שרון": 5760,
      "##ные": 5761,
      "##קע": 5762,
      "התהליך": 5763,
      "מלחמה": 5764,
      "מסוימים": 5765,
      "##מינות": 5766,
      "יחידות": 5767,
      "הפעולה": 5768,
      "##פיע": 5769,
      "##ин": 5770,
      "##צם": 5771,
      "הקרקע": 5772,
      "עברו": 5773,
      "התיכון": 5774,
      "זכוכית": 5775,
      "תביעה": 5776,
      "כלשה": 5777,
      "משכ": 5778,
      "יהודית": 5779,
      "שמי": 5780,
      "##ודיו": 5781,
      "נשאר": 5782,
      "##פלים": 5783,
      "המטרה": 5784,
      "##יסים": 5785,
      "##רבע": 5786,
      "##וברים": 5787,
      "43": 5788,
      "##וונות": 5789,
      "מורה": 5790,
      "הנוער": 5791,
      "he": 5792,
      "ישיר": 5793,
      "אופן": 5794,
      "שפת": 5795,
      "לפס": 5796,
      "כשב": 5797,
      "לתפקיד": 5798,
      "##דיש": 5799,
      "דרום": 5800,
      "מקורות": 5801,
      "44": 5802,
      "שהק": 5803,
      "##עדה": 5804,
      "bl": 5805,
      "בימ": 5806,
      "גרם": 5807,
      "עבורכם": 5808,
      "סגן": 5809,
      "שמק": 5810,
      "לעיר": 5811,
      "להיפ": 5812,
      "שלהן": 5813,
      "ממס": 5814,
      "לעצמו": 5815,
      "##iz": 5816,
      "##ימור": 5817,
      "הבה": 5818,
      "##art": 5819,
      "פרשת": 5820,
      "השבת": 5821,
      "בערב": 5822,
      "הקודם": 5823,
      "##תחלה": 5824,
      "החיפוש": 5825,
      "בחו": 5826,
      "התב": 5827,
      "##מוצע": 5828,
      "מרצ": 5829,
      "לעלות": 5830,
      "ההגנה": 5831,
      "הצפ": 5832,
      "##יזם": 5833,
      "טקסט": 5834,
      "##הן": 5835,
      "טלפון": 5836,
      "גבוהים": 5837,
      "ושם": 5838,
      "##pl": 5839,
      "גוריון": 5840,
      "הכדור": 5841,
      "##פעיל": 5842,
      "עזה": 5843,
      "נגר": 5844,
      "ארצ": 5845,
      "השמש": 5846,
      "בערך": 5847,
      "בניו": 5848,
      "##ידוש": 5849,
      "ולס": 5850,
      "רווח": 5851,
      "ליב": 5852,
      "sc": 5853,
      "הגישה": 5854,
      "למת": 5855,
      "מהק": 5856,
      "הקפ": 5857,
      "##וזים": 5858,
      "עורכי": 5859,
      "##ווירה": 5860,
      "ערוץ": 5861,
      "שהפ": 5862,
      "##שקלון": 5863,
      "##ניף": 5864,
      "ad": 5865,
      "##ell": 5866,
      "##נוס": 5867,
      "לשני": 5868,
      "שיד": 5869,
      "להגיש": 5870,
      "הכוח": 5871,
      "##טן": 5872,
      "הנוכחי": 5873,
      "##יטלי": 5874,
      "הורים": 5875,
      "##ינוס": 5876,
      "מיז": 5877,
      "מוכן": 5878,
      "דל": 5879,
      "##ние": 5880,
      "העל": 5881,
      "מלה": 5882,
      "##חתה": 5883,
      "סיכוי": 5884,
      "##בודות": 5885,
      "##all": 5886,
      "ויכ": 5887,
      "##ודא": 5888,
      "אצלנו": 5889,
      "מתנה": 5890,
      "טענה": 5891,
      "להט": 5892,
      "##ולין": 5893,
      "לעניין": 5894,
      "הוח": 5895,
      "התפתחות": 5896,
      "בגוף": 5897,
      "am": 5898,
      "נכתב": 5899,
      "##ומנים": 5900,
      "##פסיק": 5901,
      "מחפשים": 5902,
      "אוהבים": 5903,
      "והנ": 5904,
      "סקס": 5905,
      "שופ": 5906,
      "pr": 5907,
      "מחוז": 5908,
      "הדירה": 5909,
      "רוט": 5910,
      "מכיר": 5911,
      "##ישורים": 5912,
      "שומר": 5913,
      "יוסי": 5914,
      "החס": 5915,
      "לשירות": 5916,
      "##יינו": 5917,
      "לפתח": 5918,
      "##שנות": 5919,
      "מחירים": 5920,
      "טען": 5921,
      "##נייני": 5922,
      "שיניים": 5923,
      "##טת": 5924,
      "מעוצ": 5925,
      "הלקוחות": 5926,
      "חדרים": 5927,
      "aviv": 5928,
      "אפשרי": 5929,
      "איננו": 5930,
      "##כונה": 5931,
      "עפ": 5932,
      "##כמה": 5933,
      "##מסר": 5934,
      "אדרי": 5935,
      "הדעת": 5936,
      "##כום": 5937,
      "לצפות": 5938,
      "שהרי": 5939,
      "##ort": 5940,
      "##יביים": 5941,
      "איתן": 5942,
      "בשעות": 5943,
      "בעתיד": 5944,
      "פית": 5945,
      "גודל": 5946,
      "##לקות": 5947,
      "##טרס": 5948,
      "ספי": 5949,
      "המילה": 5950,
      "טובות": 5951,
      "##רקעין": 5952,
      "הנכון": 5953,
      "בלילה": 5954,
      "ודי": 5955,
      "אלכס": 5956,
      "##פרת": 5957,
      "##ריו": 5958,
      "הלכה": 5959,
      "באפרי": 5960,
      "אינן": 5961,
      "##קוב": 5962,
      "תינו": 5963,
      "נגרות": 5964,
      "כאלו": 5965,
      "תכנון": 5966,
      "הנתבעים": 5967,
      "כולה": 5968,
      "##גיד": 5969,
      "ירוק": 5970,
      "תלמיד": 5971,
      "אילו": 5972,
      "בפרס": 5973,
      "טוען": 5974,
      "מומחה": 5975,
      "לבח": 5976,
      "המוצרים": 5977,
      "בעצמ": 5978,
      "הפור": 5979,
      "שלח": 5980,
      "##ist": 5981,
      "מסוימת": 5982,
      "ונק": 5983,
      "חיבור": 5984,
      "גרמניה": 5985,
      "ביקור": 5986,
      "##ניקה": 5987,
      "בקול": 5988,
      "הקרוב": 5989,
      "בקרה": 5990,
      "בבאר": 5991,
      "ון": 5992,
      "באירוע": 5993,
      "לפגוע": 5994,
      "##но": 5995,
      "חברתית": 5996,
      "##יכוי": 5997,
      "##כוון": 5998,
      "מעלות": 5999,
      "##igh": 6000,
      "חן": 6001,
      "##of": 6002,
      "שליטה": 6003,
      "לשר": 6004,
      "פורסם": 6005,
      "הבד": 6006,
      "מלי": 6007,
      "##שתתף": 6008,
      "התלמידים": 6009,
      "עצם": 6010,
      "מסגרות": 6011,
      "##ash": 6012,
      "דיון": 6013,
      "העש": 6014,
      "רופא": 6015,
      "נפר": 6016,
      "חנה": 6017,
      "##ואת": 6018,
      "צדק": 6019,
      "ניקיון": 6020,
      "שמחה": 6021,
      "סדרת": 6022,
      "ההשק": 6023,
      "2005": 6024,
      "איכותי": 6025,
      "##אתה": 6026,
      "##לחת": 6027,
      "##ודיות": 6028,
      "החומר": 6029,
      "השא": 6030,
      "לעין": 6031,
      "##וכיח": 6032,
      "הצי": 6033,
      "לקיים": 6034,
      "הנפש": 6035,
      "מוזיקה": 6036,
      "##לנד": 6037,
      "חוקי": 6038,
      "כושר": 6039,
      "##פיות": 6040,
      "וכמה": 6041,
      "##מורת": 6042,
      "המקומית": 6043,
      "המאשימה": 6044,
      "##יתנו": 6045,
      "בקשר": 6046,
      "ואי": 6047,
      "כנסת": 6048,
      "##ייסבוק": 6049,
      "הדם": 6050,
      "מבני": 6051,
      "הצעיר": 6052,
      "מכאן": 6053,
      "הסדרה": 6054,
      "סור": 6055,
      "##ביו": 6056,
      "הספ": 6057,
      "בעברית": 6058,
      "אריה": 6059,
      "ולפ": 6060,
      "חיות": 6061,
      "אורך": 6062,
      "הופך": 6063,
      "##סקת": 6064,
      "טרור": 6065,
      "כבית": 6066,
      "המשיב": 6067,
      "תשל": 6068,
      "##ולדת": 6069,
      "##יבוב": 6070,
      "למב": 6071,
      "55": 6072,
      "בדיקת": 6073,
      "דמ": 6074,
      "##עש": 6075,
      "מנחם": 6076,
      "בעי": 6077,
      "br": 6078,
      "ביטחון": 6079,
      "##פיינים": 6080,
      "משמע": 6081,
      "##זן": 6082,
      "סיפר": 6083,
      "מלונות": 6084,
      "עמוק": 6085,
      "במוע": 6086,
      "הסדר": 6087,
      "שדרות": 6088,
      "השטח": 6089,
      "מצליח": 6090,
      "המשמעות": 6091,
      "ריב": 6092,
      "חוויה": 6093,
      "מגדל": 6094,
      "התקופה": 6095,
      "גבר": 6096,
      "##ופיה": 6097,
      "##ליכי": 6098,
      "##כללה": 6099,
      "חם": 6100,
      "ביוב": 6101,
      "הסמ": 6102,
      "##רעור": 6103,
      "וידאו": 6104,
      "מאמין": 6105,
      "נשק": 6106,
      "בפרו": 6107,
      "הפרויקט": 6108,
      "קהל": 6109,
      "##רמניה": 6110,
      "באוניברסיטת": 6111,
      "השב": 6112,
      "מקב": 6113,
      "75": 6114,
      "מכר": 6115,
      "טא": 6116,
      "יולי": 6117,
      "ואבי": 6118,
      "למשך": 6119,
      "חיס": 6120,
      "המלח": 6121,
      "מסר": 6122,
      "##ופיע": 6123,
      "המוכ": 6124,
      "גבס": 6125,
      "חלקי": 6126,
      "הזכויות": 6127,
      "ותי": 6128,
      "נחל": 6129,
      "##מטיקה": 6130,
      "פתוח": 6131,
      "ברורה": 6132,
      "46": 6133,
      "##ie": 6134,
      "##ננים": 6135,
      "##פריט": 6136,
      "לחיים": 6137,
      "יוצרים": 6138,
      "מזג": 6139,
      "כיס": 6140,
      "רלוו": 6141,
      "והז": 6142,
      "משם": 6143,
      "הכנס": 6144,
      "##ריס": 6145,
      "##רגונים": 6146,
      "תנועת": 6147,
      "##ודיים": 6148,
      "הציבורי": 6149,
      "תוס": 6150,
      "גרו": 6151,
      "וללא": 6152,
      "המר": 6153,
      "מוקדם": 6154,
      "65": 6155,
      "טה": 6156,
      "##שרו": 6157,
      "##ריב": 6158,
      "ולצ": 6159,
      "מיכאל": 6160,
      "לשון": 6161,
      "##דמות": 6162,
      "וחלק": 6163,
      "מנע": 6164,
      "שפה": 6165,
      "לטפל": 6166,
      "נקודת": 6167,
      "ביל": 6168,
      "לצע": 6169,
      "השפעה": 6170,
      "קידום": 6171,
      "בנה": 6172,
      "אנרגיה": 6173,
      "לחפש": 6174,
      "יצאו": 6175,
      "חום": 6176,
      "ללקוחות": 6177,
      "לאירועים": 6178,
      "מטבח": 6179,
      "##ומק": 6180,
      "##שוואה": 6181,
      "ال": 6182,
      "במל": 6183,
      "ישיבה": 6184,
      "##ate": 6185,
      "##נברג": 6186,
      "האלבום": 6187,
      "קוס": 6188,
      "##יפי": 6189,
      "המוסד": 6190,
      "קדימה": 6191,
      "כרגע": 6192,
      "הדור": 6193,
      "להקים": 6194,
      "לבל": 6195,
      "טענות": 6196,
      "##יקס": 6197,
      "כתוב": 6198,
      "##יטרי": 6199,
      "ארכ": 6200,
      "אשתו": 6201,
      "##19": 6202,
      "במאה": 6203,
      "מקס": 6204,
      "רה": 6205,
      "גילוי": 6206,
      "האפשר": 6207,
      "הפכה": 6208,
      "למים": 6209,
      "הוצאת": 6210,
      "למט": 6211,
      "פתיחת": 6212,
      "לרב": 6213,
      "סרטים": 6214,
      "לעז": 6215,
      "שיכול": 6216,
      "משפטי": 6217,
      "ירק": 6218,
      "##שיב": 6219,
      "##וגי": 6220,
      "הפרק": 6221,
      "##לטה": 6222,
      "##שאיר": 6223,
      "פשוטה": 6224,
      "##אט": 6225,
      "האחרים": 6226,
      "##ib": 6227,
      "המתא": 6228,
      "##סטל": 6229,
      "##וחי": 6230,
      "שמאל": 6231,
      "פלסטי": 6232,
      "בהרבה": 6233,
      "להכין": 6234,
      "##נטה": 6235,
      "אמצעי": 6236,
      "ההבד": 6237,
      "תאורה": 6238,
      "53": 6239,
      "להיע": 6240,
      "רכבת": 6241,
      "רוק": 6242,
      "מדברים": 6243,
      "תשע": 6244,
      "הטובים": 6245,
      "##כלות": 6246,
      "העד": 6247,
      "ההיסטוריה": 6248,
      "##yat": 6249,
      "צעד": 6250,
      "קופ": 6251,
      "##ge": 6252,
      "מכון": 6253,
      "התשובה": 6254,
      "ph": 6255,
      "##ph": 6256,
      "חדרי": 6257,
      "התרג": 6258,
      "לבחון": 6259,
      "לשמש": 6260,
      "פיג": 6261,
      "נמוכה": 6262,
      "תחרות": 6263,
      "בסגנון": 6264,
      "##כנן": 6265,
      "##נאה": 6266,
      "איתי": 6267,
      "yo": 6268,
      "נושאים": 6269,
      "ויל": 6270,
      "העצמ": 6271,
      "##וסקת": 6272,
      "חשובה": 6273,
      "##פתי": 6274,
      "עיקר": 6275,
      "פירות": 6276,
      "##יסטים": 6277,
      "לרצ": 6278,
      "ונח": 6279,
      "בעצמו": 6280,
      "##וטוב": 6281,
      "##וריות": 6282,
      "##ופעות": 6283,
      "התוצאה": 6284,
      "שנפ": 6285,
      "דיא": 6286,
      "התמונה": 6287,
      "מתב": 6288,
      "שימש": 6289,
      "ואנחנו": 6290,
      "אמרתי": 6291,
      "המונ": 6292,
      "##אטרון": 6293,
      "פרחים": 6294,
      "חזקה": 6295,
      "לנשים": 6296,
      "##דיף": 6297,
      "במגוון": 6298,
      "##ערה": 6299,
      "נהרג": 6300,
      "איתם": 6301,
      "פועל": 6302,
      "ציר": 6303,
      "לחם": 6304,
      "בדיקה": 6305,
      "כניסה": 6306,
      "הקרב": 6307,
      "הרפואי": 6308,
      "בינואר": 6309,
      "מכירים": 6310,
      "##נתיים": 6311,
      "לנש": 6312,
      "##ישית": 6313,
      "מאשימה": 6314,
      "##בעו": 6315,
      "מפקד": 6316,
      "שליט": 6317,
      "החול": 6318,
      "מקרים": 6319,
      "שאינה": 6320,
      "טיול": 6321,
      "באת": 6322,
      "גי": 6323,
      "קורא": 6324,
      "תחומי": 6325,
      "בשיתוף": 6326,
      "להזמין": 6327,
      "לדעתי": 6328,
      "לנה": 6329,
      "התכ": 6330,
      "שרה": 6331,
      "ביקש": 6332,
      "ברית": 6333,
      "החוץ": 6334,
      "הפופול": 6335,
      "##לאת": 6336,
      "לביצוע": 6337,
      "הבלתי": 6338,
      "##ניון": 6339,
      "יקרה": 6340,
      "בספטמבר": 6341,
      "הקומ": 6342,
      "##חייב": 6343,
      "##תייחס": 6344,
      "ויאמר": 6345,
      "49": 6346,
      "ספציפ": 6347,
      "##דס": 6348,
      "pl": 6349,
      "גובה": 6350,
      "##qu": 6351,
      "מהו": 6352,
      "##ליפות": 6353,
      "בתים": 6354,
      "מעמ": 6355,
      "להעלות": 6356,
      "שאול": 6357,
      "##נדל": 6358,
      "הכניסה": 6359,
      "##יאתילן": 6360,
      "אבות": 6361,
      "מוכר": 6362,
      "עוסק": 6363,
      "##13": 6364,
      "מתוכ": 6365,
      "ביולי": 6366,
      "קוק": 6367,
      "וכת": 6368,
      "##פסה": 6369,
      "קיום": 6370,
      "לאט": 6371,
      "##שובה": 6372,
      "מית": 6373,
      "סח": 6374,
      "חבל": 6375,
      "##ואין": 6376,
      "אוהבת": 6377,
      "מסחר": 6378,
      "##בון": 6379,
      "הוצאות": 6380,
      "רגל": 6381,
      "בחוק": 6382,
      "שבש": 6383,
      "דפ": 6384,
      "##מפרט": 6385,
      "##נטר": 6386,
      "היפ": 6387,
      "##שתית": 6388,
      "כלכלי": 6389,
      "החדר": 6390,
      "##ניט": 6391,
      "מרגיש": 6392,
      "##14": 6393,
      "חיילים": 6394,
      "נכסים": 6395,
      "לייצר": 6396,
      "##מודי": 6397,
      "לזכור": 6398,
      "תחילת": 6399,
      "השלטון": 6400,
      "##רצו": 6401,
      "נוכל": 6402,
      "בפרט": 6403,
      "מאור": 6404,
      "##ליהם": 6405,
      "כלכלית": 6406,
      "זכתה": 6407,
      "##iryat": 6408,
      "##וטו": 6409,
      "##יגי": 6410,
      "מפג": 6411,
      "ויס": 6412,
      "שופט": 6413,
      "пр": 6414,
      "מכת": 6415,
      "##צור": 6416,
      "יבוא": 6417,
      "העירייה": 6418,
      "אדמה": 6419,
      "בנובמבר": 6420,
      "הפול": 6421,
      "חות": 6422,
      "52": 6423,
      "##יזר": 6424,
      "התפקיד": 6425,
      "##ציית": 6426,
      "ביוני": 6427,
      "שלפני": 6428,
      "קס": 6429,
      "אמו": 6430,
      "##כלת": 6431,
      "משתת": 6432,
      "פארק": 6433,
      "ליל": 6434,
      "47": 6435,
      "##רמון": 6436,
      "ולג": 6437,
      "לשלוח": 6438,
      "לחי": 6439,
      "תחושת": 6440,
      "באוקטובר": 6441,
      "פתאום": 6442,
      "כו": 6443,
      "לחברת": 6444,
      "באו": 6445,
      "תפק": 6446,
      "##וניברסיטה": 6447,
      "##כוה": 6448,
      "העין": 6449,
      "מציעה": 6450,
      "##כרים": 6451,
      "יחס": 6452,
      "הטי": 6453,
      "עומדים": 6454,
      "השח": 6455,
      "הוסיף": 6456,
      "אריאל": 6457,
      "בחש": 6458,
      "עדיף": 6459,
      "מקווה": 6460,
      "המדע": 6461,
      "##יאלי": 6462,
      "ma": 6463,
      "השפה": 6464,
      "##ом": 6465,
      "בבקשה": 6466,
      "##גרה": 6467,
      "המלצות": 6468,
      "מחי": 6469,
      "קוראים": 6470,
      "שעברה": 6471,
      "שוו": 6472,
      "רחוק": 6473,
      "##ity": 6474,
      "##פנים": 6475,
      "מנות": 6476,
      "לשבת": 6477,
      "##וכנות": 6478,
      "אורג": 6479,
      "הרמב": 6480,
      "##רכב": 6481,
      "ורא": 6482,
      "מילה": 6483,
      "##מיני": 6484,
      "מגן": 6485,
      "##חייה": 6486,
      "רשאי": 6487,
      "משחקי": 6488,
      "כספי": 6489,
      "##מחים": 6490,
      "רגיל": 6491,
      "בשבתו": 6492,
      "החשמל": 6493,
      "מהג": 6494,
      "דרכ": 6495,
      "עילית": 6496,
      "שולחן": 6497,
      "ונית": 6498,
      "האמריקאי": 6499,
      "##אום": 6500,
      "קרו": 6501,
      "##חתם": 6502,
      "##נל": 6503,
      "החלטות": 6504,
      "##צרות": 6505,
      "##קול": 6506,
      "רחוב": 6507,
      "לשמ": 6508,
      "להרח": 6509,
      "##דמה": 6510,
      "המתק": 6511,
      "עובדי": 6512,
      "##ob": 6513,
      "חמישה": 6514,
      "##ek": 6515,
      "בניין": 6516,
      "כיף": 6517,
      "לשפר": 6518,
      "במים": 6519,
      "פעיל": 6520,
      "גני": 6521,
      "צפוי": 6522,
      "בוג": 6523,
      "ממני": 6524,
      "תורת": 6525,
      "נהג": 6526,
      "ההסכם": 6527,
      "השתמש": 6528,
      "פעמיים": 6529,
      "פרג": 6530,
      "תאי": 6531,
      "ורב": 6532,
      "אופט": 6533,
      "מכתב": 6534,
      "מגורים": 6535,
      "זע": 6536,
      "סבל": 6537,
      "החדשות": 6538,
      "ייצור": 6539,
      "לשכת": 6540,
      "הכלכלי": 6541,
      "תוספת": 6542,
      "##ושב": 6543,
      "תובע": 6544,
      "השניים": 6545,
      "עתיד": 6546,
      "##ידית": 6547,
      "ברב": 6548,
      "עומדת": 6549,
      "##אש": 6550,
      "##חינה": 6551,
      "מרה": 6552,
      "ram": 6553,
      "##ment": 6554,
      "המקרים": 6555,
      "אפליק": 6556,
      "הספרים": 6557,
      "לפיכך": 6558,
      "עצמית": 6559,
      "חושבים": 6560,
      "האלו": 6561,
      "לשאול": 6562,
      "##יאן": 6563,
      "חמישי": 6564,
      "יימ": 6565,
      "חלקים": 6566,
      "לכולם": 6567,
      "הידע": 6568,
      "##ומנות": 6569,
      "התחיל": 6570,
      "פלסט": 6571,
      "פו": 6572,
      "רשימת": 6573,
      "##למה": 6574,
      "##ולוגיים": 6575,
      "##בריו": 6576,
      "פירוש": 6577,
      "##וזר": 6578,
      "קונס": 6579,
      "בצה": 6580,
      "נול": 6581,
      "בנייה": 6582,
      "ואיכות": 6583,
      "##ци": 6584,
      "מחקרים": 6585,
      "##ובייקט": 6586,
      "94": 6587,
      "##וצאת": 6588,
      "##ובדה": 6589,
      "לאה": 6590,
      "לציבור": 6591,
      "לקדם": 6592,
      "##מקד": 6593,
      "ספרות": 6594,
      "הגדולות": 6595,
      "חכם": 6596,
      "##קיה": 6597,
      "ער": 6598,
      "מונה": 6599,
      "מוצא": 6600,
      "##ит": 6601,
      "ואחר": 6602,
      "חברתי": 6603,
      "בעד": 6604,
      "והרי": 6605,
      "בכמה": 6606,
      "##ידר": 6607,
      "ומתן": 6608,
      "אמריקה": 6609,
      "סיפורים": 6610,
      "שפע": 6611,
      "שרות": 6612,
      "##וטנציאל": 6613,
      "יהושע": 6614,
      "פנו": 6615,
      "הקיץ": 6616,
      "עליכם": 6617,
      "בחיי": 6618,
      "לוחות": 6619,
      "##טרים": 6620,
      "##כנס": 6621,
      "עשיר": 6622,
      "לזכות": 6623,
      "חייבת": 6624,
      "##בני": 6625,
      "ישראלית": 6626,
      "חלקם": 6627,
      "##אני": 6628,
      "##לף": 6629,
      "ממשיך": 6630,
      "להסביר": 6631,
      "ארוחת": 6632,
      "##כוד": 6633,
      "חנות": 6634,
      "תשומת": 6635,
      "בהצלחה": 6636,
      "##ол": 6637,
      "##נפ": 6638,
      "http": 6639,
      "מחר": 6640,
      "בפס": 6641,
      "היחסים": 6642,
      "נוף": 6643,
      "##וער": 6644,
      "מיכל": 6645,
      "פינת": 6646,
      "הכח": 6647,
      "העות": 6648,
      "נדרש": 6649,
      "ברז": 6650,
      "הספורט": 6651,
      "פועלים": 6652,
      "##ינתי": 6653,
      "##רנית": 6654,
      "איסור": 6655,
      "שומן": 6656,
      "##ובלי": 6657,
      "סת": 6658,
      "חופש": 6659,
      "##מורה": 6660,
      "חתי": 6661,
      "שנאמר": 6662,
      "פוסט": 6663,
      "לסרט": 6664,
      "ובנו": 6665,
      "בסעיף": 6666,
      "להגן": 6667,
      "חכמים": 6668,
      "##ind": 6669,
      "שזו": 6670,
      "לחל": 6671,
      "##ירוג": 6672,
      "רעיון": 6673,
      "ממת": 6674,
      "נוצר": 6675,
      "מאיתנו": 6676,
      "ליע": 6677,
      "ברשות": 6678,
      "הגבוהה": 6679,
      "המקורי": 6680,
      "לאו": 6681,
      "##יתונות": 6682,
      "##pe": 6683,
      "עובדת": 6684,
      "המזון": 6685,
      "העיקרי": 6686,
      "סיני": 6687,
      "##אוג": 6688,
      "טלוויזיה": 6689,
      "מזמן": 6690,
      "להעניק": 6691,
      "לבקר": 6692,
      "המרכזית": 6693,
      "בנג": 6694,
      "שכת": 6695,
      "הקטן": 6696,
      "##אללה": 6697,
      "רחל": 6698,
      "קריאה": 6699,
      "##רפתי": 6700,
      "##fa": 6701,
      "במלון": 6702,
      "##18": 6703,
      "הפועלים": 6704,
      "בראשון": 6705,
      "64": 6706,
      "54": 6707,
      "##תייש": 6708,
      "טכני": 6709,
      "##ill": 6710,
      "שאף": 6711,
      "הבנתי": 6712,
      "ליא": 6713,
      "##יגו": 6714,
      "שניים": 6715,
      "תחושה": 6716,
      "ייחודי": 6717,
      "עפר": 6718,
      "ויט": 6719,
      "גולד": 6720,
      "##חוק": 6721,
      "כבד": 6722,
      "מבינים": 6723,
      "##ופין": 6724,
      "##th": 6725,
      "הפרטים": 6726,
      "והכל": 6727,
      "לטענת": 6728,
      "ברחובות": 6729,
      "הנג": 6730,
      "האמור": 6731,
      "מופיע": 6732,
      "שחקנים": 6733,
      "דלק": 6734,
      "לנהל": 6735,
      "מחול": 6736,
      "המפלגה": 6737,
      "סיל": 6738,
      "57": 6739,
      "החדשים": 6740,
      "תרופות": 6741,
      "##יצונית": 6742,
      "להרגיש": 6743,
      "דופן": 6744,
      "ציו": 6745,
      "הקשור": 6746,
      "##15": 6747,
      "צנרת": 6748,
      "##יסטורי": 6749,
      "צפון": 6750,
      "##יצוי": 6751,
      "##ва": 6752,
      "בדומה": 6753,
      "סמוך": 6754,
      "##נינו": 6755,
      "הבינלאומי": 6756,
      "##יקל": 6757,
      "הבריטי": 6758,
      "להישאר": 6759,
      "400": 6760,
      "הלאומית": 6761,
      "הציבורית": 6762,
      "תלו": 6763,
      "מחלות": 6764,
      "זוכ": 6765,
      "##ne": 6766,
      "##bo": 6767,
      "לדוגמא": 6768,
      "##ריד": 6769,
      "מאמרים": 6770,
      "להימנע": 6771,
      "##טט": 6772,
      "מידה": 6773,
      "הגשת": 6774,
      "##פונים": 6775,
      "מציאות": 6776,
      "המדינות": 6777,
      "##כז": 6778,
      "אקס": 6779,
      "ac": 6780,
      "ירידה": 6781,
      "מתל": 6782,
      "ליבר": 6783,
      "tra": 6784,
      "האדמה": 6785,
      "החג": 6786,
      "קרובות": 6787,
      "תוכניות": 6788,
      "הולכים": 6789,
      "הרגל": 6790,
      "לדבריו": 6791,
      "חוזה": 6792,
      "##ועלת": 6793,
      "המשיבה": 6794,
      "באפריל": 6795,
      "מכשיר": 6796,
      "##17": 6797,
      "אתרי": 6798,
      "##מוי": 6799,
      "בצבע": 6800,
      "הרכבת": 6801,
      "ושה": 6802,
      "ותש": 6803,
      "הנסיעה": 6804,
      "לחבר": 6805,
      "##יסבוק": 6806,
      "לקח": 6807,
      "##כירת": 6808,
      "מותו": 6809,
      "ישירה": 6810,
      "לרא": 6811,
      "##נך": 6812,
      "הכוונה": 6813,
      "חשש": 6814,
      "##ופלים": 6815,
      "קולנוע": 6816,
      "מגיעה": 6817,
      "תלמידים": 6818,
      "התובעים": 6819,
      "ולד": 6820,
      "מושג": 6821,
      "##up": 6822,
      "##az": 6823,
      "ההק": 6824,
      "באוגוסט": 6825,
      "##סד": 6826,
      "בפרק": 6827,
      "מעש": 6828,
      "##ארי": 6829,
      "משותף": 6830,
      "רז": 6831,
      "הון": 6832,
      "מפור": 6833,
      "יוצר": 6834,
      "##וצע": 6835,
      "יאיר": 6836,
      "העתיקה": 6837,
      "במלחמת": 6838,
      "הטלוויזיה": 6839,
      "בדצמבר": 6840,
      "מהירה": 6841,
      "##מיכה": 6842,
      "יצירה": 6843,
      "##ריאות": 6844,
      "##וצי": 6845,
      "משני": 6846,
      "ציבורית": 6847,
      "מצוות": 6848,
      "##גרס": 6849,
      "העמק": 6850,
      "##נסי": 6851,
      "המקור": 6852,
      "##מציה": 6853,
      "שרא": 6854,
      "העברת": 6855,
      "עברה": 6856,
      "אילת": 6857,
      "וכדומה": 6858,
      "כתבה": 6859,
      "##от": 6860,
      "##פיד": 6861,
      "והיו": 6862,
      "##ינשטיין": 6863,
      "הקו": 6864,
      "האצ": 6865,
      "##פיל": 6866,
      "הוו": 6867,
      "##60": 6868,
      "השואה": 6869,
      "עשויה": 6870,
      "בטח": 6871,
      "יקר": 6872,
      "יחסים": 6873,
      "עברית": 6874,
      "הכלים": 6875,
      "הבחירה": 6876,
      "ההש": 6877,
      "net": 6878,
      "מיזוג": 6879,
      "מצוין": 6880,
      "##nam": 6881,
      "תגובה": 6882,
      "tr": 6883,
      "אזורי": 6884,
      "ללב": 6885,
      "להתאים": 6886,
      "בהצ": 6887,
      "##וסטר": 6888,
      "ריכ": 6889,
      "הגול": 6890,
      "we": 6891,
      "שלט": 6892,
      "ניכר": 6893,
      "מילוי": 6894,
      "העיצוב": 6895,
      "ברכה": 6896,
      "##עדי": 6897,
      "עמדה": 6898,
      "שעש": 6899,
      "דרו": 6900,
      "שהב": 6901,
      "הפסיכ": 6902,
      "מסביר": 6903,
      "##כירות": 6904,
      "הצלחה": 6905,
      "המשת": 6906,
      "הקצ": 6907,
      "דעתו": 6908,
      "תיע": 6909,
      "הבקשה": 6910,
      "עזרה": 6911,
      "##בטיה": 6912,
      "כזאת": 6913,
      "##גרש": 6914,
      "2003": 6915,
      "ידו": 6916,
      "##יבורים": 6917,
      "צמח": 6918,
      "##כללת": 6919,
      "##נוב": 6920,
      "מוסדות": 6921,
      "בתום": 6922,
      "##מוני": 6923,
      "97": 6924,
      "מספקת": 6925,
      "##כוהול": 6926,
      "##ומא": 6927,
      "הכפר": 6928,
      "עמית": 6929,
      "##כרות": 6930,
      "להיר": 6931,
      "נאשמים": 6932,
      "כוכב": 6933,
      "שיפור": 6934,
      "שאמר": 6935,
      "##ive": 6936,
      "ונג": 6937,
      "קיבלו": 6938,
      "##צרו": 6939,
      "##נלי": 6940,
      "שמים": 6941,
      "im": 6942,
      "בהג": 6943,
      "הקשה": 6944,
      "למכור": 6945,
      "##פיו": 6946,
      "הפכו": 6947,
      "u05e": 6948,
      "ואיך": 6949,
      "האר": 6950,
      "בחוץ": 6951,
      "##פיא": 6952,
      "אוניברסיטת": 6953,
      "המשפטי": 6954,
      "דוא": 6955,
      "הלהקה": 6956,
      "קצרה": 6957,
      "ההד": 6958,
      "##ליטות": 6959,
      "חשובים": 6960,
      "הליך": 6961,
      "כאב": 6962,
      "##יקי": 6963,
      "דגם": 6964,
      "שניהם": 6965,
      "##וגן": 6966,
      "בהע": 6967,
      "בקט": 6968,
      "דוק": 6969,
      "ובט": 6970,
      "יובל": 6971,
      "דיווח": 6972,
      "##ודדים": 6973,
      "הערבי": 6974,
      "שקט": 6975,
      "מהב": 6976,
      "##io": 6977,
      "ביטול": 6978,
      "##מנויות": 6979,
      "אורח": 6980,
      "דמוקרט": 6981,
      "החוף": 6982,
      "מכיל": 6983,
      "להחזיר": 6984,
      "להשקיע": 6985,
      "וכמו": 6986,
      "הנדר": 6987,
      "תחילה": 6988,
      "העסקים": 6989,
      "##טרקציות": 6990,
      "מוות": 6991,
      "עזר": 6992,
      "זול": 6993,
      "בטיחות": 6994,
      "פינוי": 6995,
      "במי": 6996,
      "למשחק": 6997,
      "לרח": 6998,
      "עליך": 6999,
      "שבהן": 7000,
      "נתק": 7001,
      "והי": 7002,
      "סטי": 7003,
      "הקדוש": 7004,
      "דרכו": 7005,
      "המושלם": 7006,
      "החברים": 7007,
      "פצ": 7008,
      "העבר": 7009,
      "לצומת": 7010,
      "זוכה": 7011,
      "הבנייה": 7012,
      "מתחילים": 7013,
      "בהקשר": 7014,
      "שחקן": 7015,
      "##תיחה": 7016,
      "להכניס": 7017,
      "סוכר": 7018,
      "הראשונות": 7019,
      "##ניהן": 7020,
      "##ויח": 7021,
      "##שתתפות": 7022,
      "לנג": 7023,
      "זרי": 7024,
      "אבר": 7025,
      "רציתי": 7026,
      "מצפה": 7027,
      "ההור": 7028,
      "ופע": 7029,
      "מכירה": 7030,
      "##ישו": 7031,
      "לזהות": 7032,
      "מטה": 7033,
      "בלה": 7034,
      "כאחד": 7035,
      "לבטל": 7036,
      "הגורם": 7037,
      "היסטור": 7038,
      "עלייה": 7039,
      "עיתונ": 7040,
      "ליק": 7041,
      "שבס": 7042,
      "##ניעת": 7043,
      "מעוניינים": 7044,
      "השיטה": 7045,
      "מהמק": 7046,
      "##וצרת": 7047,
      "שהכ": 7048,
      "##ам": 7049,
      "מימון": 7050,
      "המבוס": 7051,
      "נורא": 7052,
      "למעט": 7053,
      "##רויות": 7054,
      "##ction": 7055,
      "##נדס": 7056,
      "ומתח": 7057,
      "אשת": 7058,
      "הפרטי": 7059,
      "בחברת": 7060,
      "כנס": 7061,
      "מאמר": 7062,
      "##ימרים": 7063,
      "עמי": 7064,
      "בינתיים": 7065,
      "##ריל": 7066,
      "הות": 7067,
      "הלך": 7068,
      "##מני": 7069,
      "##רשמה": 7070,
      "רד": 7071,
      "חיה": 7072,
      "עברי": 7073,
      "לקרי": 7074,
      "לימודים": 7075,
      "el": 7076,
      "חופשי": 7077,
      "הקונ": 7078,
      "דגש": 7079,
      "ומקצוע": 7080,
      "##ודק": 7081,
      "במזרח": 7082,
      "איזו": 7083,
      "הזכות": 7084,
      "##יקאים": 7085,
      "##פורמה": 7086,
      "road": 7087,
      "בלח": 7088,
      "חנו": 7089,
      "ילדי": 7090,
      "האה": 7091,
      "##יסר": 7092,
      "כספים": 7093,
      "מבחר": 7094,
      "משע": 7095,
      "הדג": 7096,
      "רצוי": 7097,
      "לרגע": 7098,
      "מטרים": 7099,
      "בתגובה": 7100,
      "השי": 7101,
      "שיותר": 7102,
      "ההון": 7103,
      "##וגו": 7104,
      "##יכולת": 7105,
      "יוז": 7106,
      "##מלה": 7107,
      "שוכ": 7108,
      "חוף": 7109,
      "סקר": 7110,
      "##שבות": 7111,
      "##כנע": 7112,
      "##לע": 7113,
      "יוק": 7114,
      "הצבע": 7115,
      "אחיו": 7116,
      "הערבים": 7117,
      "ינו": 7118,
      "אישיות": 7119,
      "##סטים": 7120,
      "נפרד": 7121,
      "##יסטית": 7122,
      "ריה": 7123,
      "חשבתי": 7124,
      "##יטור": 7125,
      "ווא": 7126,
      "למלא": 7127,
      "לרכב": 7128,
      "להציע": 7129,
      "##לימות": 7130,
      "הישיבה": 7131,
      "עצמא": 7132,
      "##ברתית": 7133,
      "שקיב": 7134,
      "מסוגל": 7135,
      "לחג": 7136,
      "גילה": 7137,
      "לתקן": 7138,
      "98": 7139,
      "לשנת": 7140,
      "גנ": 7141,
      "באיכות": 7142,
      "העצמאות": 7143,
      "רות": 7144,
      "עשויים": 7145,
      "יחיד": 7146,
      "##בירו": 7147,
      "שוש": 7148,
      "150": 7149,
      "##ес": 7150,
      "בקרוב": 7151,
      "רצה": 7152,
      "וחיפוי": 7153,
      "מקצועיים": 7154,
      "האחד": 7155,
      "ישנו": 7156,
      "בתחומי": 7157,
      "קצב": 7158,
      "משפחתו": 7159,
      "ונה": 7160,
      "להתג": 7161,
      "##גיה": 7162,
      "##30": 7163,
      "##ודשי": 7164,
      "##דיון": 7165,
      "##are": 7166,
      "מודעות": 7167,
      "##מחירון": 7168,
      "מועצת": 7169,
      "בשפה": 7170,
      "##יחת": 7171,
      "##ירום": 7172,
      "לחס": 7173,
      "##יפון": 7174,
      "קובע": 7175,
      "##ובש": 7176,
      "העברי": 7177,
      "האמנות": 7178,
      "צר": 7179,
      "התכנית": 7180,
      "##כמים": 7181,
      "xxx": 7182,
      "לרמת": 7183,
      "##va": 7184,
      "##יוט": 7185,
      "החודש": 7186,
      "למז": 7187,
      "שירה": 7188,
      "us": 7189,
      "בסב": 7190,
      "להבטיח": 7191,
      "הצליחו": 7192,
      "קטגוריה": 7193,
      "##ass": 7194,
      "בצל": 7195,
      "השקעות": 7196,
      "מהי": 7197,
      "מתאימה": 7198,
      "אלבום": 7199,
      "המועד": 7200,
      "ימין": 7201,
      "הכנסה": 7202,
      "אביזרים": 7203,
      "גיר": 7204,
      "הכללי": 7205,
      "שוח": 7206,
      "למתן": 7207,
      "יושב": 7208,
      "הנז": 7209,
      "אלק": 7210,
      "56": 7211,
      "פרטית": 7212,
      "שפר": 7213,
      "##ושם": 7214,
      "ומז": 7215,
      "תמר": 7216,
      "האק": 7217,
      "אפריקה": 7218,
      "בחול": 7219,
      "החיס": 7220,
      "58": 7221,
      "##ינד": 7222,
      "אלקטרוני": 7223,
      "אחראי": 7224,
      "ואינו": 7225,
      "זית": 7226,
      "שמגיע": 7227,
      "הצבאי": 7228,
      "##ודיה": 7229,
      "עיניים": 7230,
      "הסבר": 7231,
      "ריח": 7232,
      "קיבלה": 7233,
      "לקוח": 7234,
      "ברכב": 7235,
      "בואו": 7236,
      "לוקח": 7237,
      "##ex": 7238,
      "ההתק": 7239,
      "מאו": 7240,
      "חוס": 7241,
      "בשתי": 7242,
      "למידה": 7243,
      "יוצאים": 7244,
      "נוק": 7245,
      "הלימוד": 7246,
      "##ניב": 7247,
      "בצורת": 7248,
      "מצאתי": 7249,
      "בהכרח": 7250,
      "הצטר": 7251,
      "##בורג": 7252,
      "תמורת": 7253,
      "מרחב": 7254,
      "זאב": 7255,
      "גדל": 7256,
      "בולט": 7257,
      "כללית": 7258,
      "מאה": 7259,
      "קשים": 7260,
      "בגל": 7261,
      "לוותר": 7262,
      "יוצאת": 7263,
      "##פין": 7264,
      "חייהם": 7265,
      "ציפ": 7266,
      "נבחר": 7267,
      "קשור": 7268,
      "לבקש": 7269,
      "במוס": 7270,
      "בריא": 7271,
      "גידול": 7272,
      "##ליא": 7273,
      "##בילה": 7274,
      "מבצעים": 7275,
      "קשות": 7276,
      "האמיתי": 7277,
      "עוברים": 7278,
      "משתנה": 7279,
      "אשה": 7280,
      "בנט": 7281,
      "הבניין": 7282,
      "המשנה": 7283,
      "מחס": 7284,
      "##כונית": 7285,
      "אופנה": 7286,
      "##ans": 7287,
      "כיו": 7288,
      "לים": 7289,
      "##מוז": 7290,
      "צבעים": 7291,
      "הוז": 7292,
      "עט": 7293,
      "##חינת": 7294,
      "להוריד": 7295,
      "##סס": 7296,
      "off": 7297,
      "חני": 7298,
      "התוכ": 7299,
      "##חח": 7300,
      "המקדש": 7301,
      "סיכון": 7302,
      "שהוק": 7303,
      "להוכיח": 7304,
      "##לכת": 7305,
      "ייחוד": 7306,
      "עדות": 7307,
      "למערכת": 7308,
      "שיטות": 7309,
      "בקר": 7310,
      "לפק": 7311,
      "מטרה": 7312,
      "שלושת": 7313,
      "##נתר": 7314,
      "##אלת": 7315,
      "##ועדת": 7316,
      "הזהב": 7317,
      "במרץ": 7318,
      "ap": 7319,
      "ואחרי": 7320,
      "השירים": 7321,
      "הבן": 7322,
      "ואולם": 7323,
      "להפסיק": 7324,
      "העובד": 7325,
      "בהרצ": 7326,
      "##סוקה": 7327,
      "מנהלת": 7328,
      "בתנאי": 7329,
      "ואחד": 7330,
      "טראמפ": 7331,
      "##ליטים": 7332,
      "מחלקת": 7333,
      "להתייחס": 7334,
      "85": 7335,
      "מסביב": 7336,
      "##אתם": 7337,
      "הגא": 7338,
      "מכירות": 7339,
      "לבסוף": 7340,
      "תחז": 7341,
      "אחריו": 7342,
      "שוקולד": 7343,
      "כלשהי": 7344,
      "בגן": 7345,
      "רוכ": 7346,
      "רוסיה": 7347,
      "##איות": 7348,
      "##פלת": 7349,
      "##16": 7350,
      "##ירוף": 7351,
      "רעיונות": 7352,
      "מאחור": 7353,
      "##ack": 7354,
      "איתה": 7355,
      "הארי": 7356,
      "##גרם": 7357,
      "##ck": 7358,
      "##ust": 7359,
      "נייר": 7360,
      "פעילויות": 7361,
      "תגובות": 7362,
      "החלטת": 7363,
      "הקורס": 7364,
      "ולו": 7365,
      "להחליף": 7366,
      "לקהל": 7367,
      "בטרם": 7368,
      "מכונות": 7369,
      "רשמי": 7370,
      "שיחות": 7371,
      "תחנת": 7372,
      "רמות": 7373,
      "בעיצוב": 7374,
      "לעצור": 7375,
      "##פכה": 7376,
      "תום": 7377,
      "אנגלית": 7378,
      "יומי": 7379,
      "פרויקטים": 7380,
      "יט": 7381,
      "חושבת": 7382,
      "סך": 7383,
      "וכאשר": 7384,
      "המוזיקה": 7385,
      "תמצאו": 7386,
      "כחול": 7387,
      "תקצ": 7388,
      "##ילומים": 7389,
      "המערער": 7390,
      "##כלול": 7391,
      "כימ": 7392,
      "##שתתפים": 7393,
      "כביש": 7394,
      "המסחר": 7395,
      "וזו": 7396,
      "זיו": 7397,
      "היחס": 7398,
      "מציג": 7399,
      "שאי": 7400,
      "לייש": 7401,
      "התושבים": 7402,
      "##ירור": 7403,
      "ובי": 7404,
      "מצח": 7405,
      "מניות": 7406,
      "לבעלי": 7407,
      "בפעילות": 7408,
      "##יציה": 7409,
      "שיצא": 7410,
      "הכוללת": 7411,
      "פרנק": 7412,
      "##ביש": 7413,
      "##נתן": 7414,
      "מומחים": 7415,
      "הטיפ": 7416,
      "עולים": 7417,
      "בשיעור": 7418,
      "##בחים": 7419,
      "##טרך": 7420,
      "##ופשה": 7421,
      "זהות": 7422,
      "נתון": 7423,
      "טיסה": 7424,
      "##ימום": 7425,
      "##מרות": 7426,
      "בטיפול": 7427,
      "לחת": 7428,
      "המעבר": 7429,
      "צרכ": 7430,
      "מלווה": 7431,
      "מאמינים": 7432,
      "מציעים": 7433,
      "מחמ": 7434,
      "חנויות": 7435,
      "בפברואר": 7436,
      "ביבי": 7437,
      "האמית": 7438,
      "לדר": 7439,
      "at": 7440,
      "האחריות": 7441,
      "היכן": 7442,
      "הארצ": 7443,
      "##ורן": 7444,
      "לוקחת": 7445,
      "בקשת": 7446,
      "##רונית": 7447,
      "נוז": 7448,
      "חלונות": 7449,
      "##ure": 7450,
      "ובכלל": 7451,
      "המתאים": 7452,
      "מוכנים": 7453,
      "##רישות": 7454,
      "תכונות": 7455,
      "בחירה": 7456,
      "לשינוי": 7457,
      "רכישת": 7458,
      "שלד": 7459,
      "מקד": 7460,
      "ומט": 7461,
      "##תיקון": 7462,
      "סטודנטים": 7463,
      "מוזמנים": 7464,
      "טק": 7465,
      "יעל": 7466,
      "ההע": 7467,
      "שהביא": 7468,
      "##ал": 7469,
      "הנצ": 7470,
      "הלאה": 7471,
      "הרצון": 7472,
      "נותנים": 7473,
      "איי": 7474,
      "67": 7475,
      "בגובה": 7476,
      "##גדים": 7477,
      "המחירים": 7478,
      "kiryat": 7479,
      "מנסים": 7480,
      "נמסר": 7481,
      "##יקף": 7482,
      "בחק": 7483,
      "השלישית": 7484,
      "לערוך": 7485,
      "ההר": 7486,
      "בסמוך": 7487,
      "בשימוש": 7488,
      "##שאי": 7489,
      "יתרון": 7490,
      "הדלת": 7491,
      "הרבים": 7492,
      "##בירות": 7493,
      "אלמנטים": 7494,
      "בכוח": 7495,
      "ערבים": 7496,
      "המשמש": 7497,
      "מגלה": 7498,
      "הפרסום": 7499,
      "והתק": 7500,
      "בראשות": 7501,
      "לגיל": 7502,
      "עמדת": 7503,
      "משותפת": 7504,
      "נדמה": 7505,
      "לפרו": 7506,
      "ולהע": 7507,
      "גופי": 7508,
      "הדמוקרט": 7509,
      "##והה": 7510,
      "הגליל": 7511,
      "גבעת": 7512,
      "העסקה": 7513,
      "מסור": 7514,
      "מקומית": 7515,
      "פח": 7516,
      "זכאי": 7517,
      "העמ": 7518,
      "כני": 7519,
      "קלים": 7520,
      "ופשוט": 7521,
      "הבכ": 7522,
      "##וזן": 7523,
      "ידעתי": 7524,
      "פחד": 7525,
      "לדרך": 7526,
      "מטרות": 7527,
      "שולח": 7528,
      "צביעה": 7529,
      "המילים": 7530,
      "משוב": 7531,
      "תיאור": 7532,
      "עכ": 7533,
      "הקולנוע": 7534,
      "##ילנד": 7535,
      "אמיתית": 7536,
      "דמויות": 7537,
      "##דיקות": 7538,
      "##רגש": 7539,
      "התחבורה": 7540,
      "בתורה": 7541,
      "המערבי": 7542,
      "גבולות": 7543,
      "##ant": 7544,
      "ולמע": 7545,
      "מפול": 7546,
      "מועדון": 7547,
      "במשפט": 7548,
      "איננה": 7549,
      "##דרו": 7550,
      "בתוכנית": 7551,
      "אפקט": 7552,
      "##sh": 7553,
      "שפור": 7554,
      "##ינא": 7555,
      "וצי": 7556,
      "האימ": 7557,
      "##בחרת": 7558,
      "בחום": 7559,
      "שהגיע": 7560,
      "עצמאי": 7561,
      "אוגוסט": 7562,
      "##ישון": 7563,
      "אימון": 7564,
      "סוד": 7565,
      "מהמש": 7566,
      "ביס": 7567,
      "##געו": 7568,
      "ידיעות": 7569,
      "לאת": 7570,
      "דבריו": 7571,
      "קווי": 7572,
      "המוג": 7573,
      "##ace": 7574,
      "ממשלה": 7575,
      "מטרת": 7576,
      "הרחב": 7577,
      "בהיות": 7578,
      "ישנן": 7579,
      "ההסת": 7580,
      "##חרור": 7581,
      "נוסח": 7582,
      "שנייה": 7583,
      "שהיתה": 7584,
      "##וגיה": 7585,
      "טעות": 7586,
      "##יסי": 7587,
      "גולן": 7588,
      "לפועל": 7589,
      "תוכנה": 7590,
      "בפור": 7591,
      "##יעוץ": 7592,
      "##אבים": 7593,
      "ואנו": 7594,
      "בשום": 7595,
      "2002": 7596,
      "##וגת": 7597,
      "עסקי": 7598,
      "הוציא": 7599,
      "להראות": 7600,
      "bo": 7601,
      "יי": 7602,
      "ובצ": 7603,
      "מרכזית": 7604,
      "ראשו": 7605,
      "##ליחים": 7606,
      "אינד": 7607,
      "המשיך": 7608,
      "מזו": 7609,
      "##טחי": 7610,
      "נמש": 7611,
      "הכלכלה": 7612,
      "בחירת": 7613,
      "##בטא": 7614,
      "הנוכח": 7615,
      "הכבוד": 7616,
      "וגד": 7617,
      "פנה": 7618,
      "ויב": 7619,
      "לעסוק": 7620,
      "במוז": 7621,
      "##שך": 7622,
      "##ביס": 7623,
      "ליח": 7624,
      "ברזל": 7625,
      "עלולה": 7626,
      "הלוח": 7627,
      "למטה": 7628,
      "דיבר": 7629,
      "תקציב": 7630,
      "מהלך": 7631,
      "היסטוריה": 7632,
      "##ost": 7633,
      "##ore": 7634,
      "59": 7635,
      "##80": 7636,
      "יעשה": 7637,
      "##גורר": 7638,
      "##נציה": 7639,
      "לחדר": 7640,
      "דורש": 7641,
      "לעצמי": 7642,
      "מושלמת": 7643,
      "##סייע": 7644,
      "איכ": 7645,
      "ריהוט": 7646,
      "##דיא": 7647,
      "כרטיסי": 7648,
      "##ния": 7649,
      "השירותים": 7650,
      "במילים": 7651,
      "לילד": 7652,
      "##ניסיון": 7653,
      "הטור": 7654,
      "##ניו": 7655,
      "חלון": 7656,
      "רחבי": 7657,
      "צמוד": 7658,
      "סין": 7659,
      "##בך": 7660,
      "לגבעת": 7661,
      "בבחירות": 7662,
      "הקבוע": 7663,
      "ави": 7664,
      "השינוי": 7665,
      "לפרטים": 7666,
      "##יעית": 7667,
      "##גנו": 7668,
      "##שימת": 7669,
      "זרים": 7670,
      "שהוג": 7671,
      "הולכת": 7672,
      "שפות": 7673,
      "הראל": 7674,
      "המחלה": 7675,
      "##ינוכ": 7676,
      "והתח": 7677,
      "התה": 7678,
      "האירועים": 7679,
      "מהכ": 7680,
      "##יימה": 7681,
      "ועכשיו": 7682,
      "אע": 7683,
      "סגנון": 7684,
      "למרכז": 7685,
      "ארונות": 7686,
      "91": 7687,
      "הבמה": 7688,
      "##יאו": 7689,
      "##named": 7690,
      "פופול": 7691,
      "קיימות": 7692,
      "רפואית": 7693,
      "##ial": 7694,
      "סוגים": 7695,
      "אלימות": 7696,
      "unnamed": 7697,
      "שניות": 7698,
      "##ארץ": 7699,
      "##ight": 7700,
      "ניכ": 7701,
      "המאמר": 7702,
      "השומר": 7703,
      "הספק": 7704,
      "איז": 7705,
      "##פלל": 7706,
      "הובלות": 7707,
      "יעיל": 7708,
      "שיפוץ": 7709,
      "שבט": 7710,
      "האהבה": 7711,
      "גת": 7712,
      "קיבוץ": 7713,
      "מהות": 7714,
      "##פעול": 7715,
      "דיסק": 7716,
      "מפעל": 7717,
      "##מותת": 7718,
      "##na": 7719,
      "ילי": 7720,
      "שהז": 7721,
      "מתקי": 7722,
      "זוכר": 7723,
      "קשת": 7724,
      "אן": 7725,
      "ואתם": 7726,
      "דיני": 7727,
      "לוודא": 7728,
      "כמי": 7729,
      "הודיע": 7730,
      "ואחרים": 7731,
      "חיפ": 7732,
      "##לס": 7733,
      "הקיבוץ": 7734,
      "אזרחים": 7735,
      "אליעזר": 7736,
      "באופ": 7737,
      "ומתק": 7738,
      "##ינסקי": 7739,
      "שנמצא": 7740,
      "##אד": 7741,
      "הוראה": 7742,
      "רביעי": 7743,
      "##זציה": 7744,
      "קישור": 7745,
      "המאוח": 7746,
      "ליצירת": 7747,
      "הדרו": 7748,
      "מפק": 7749,
      "טווח": 7750,
      "מוביל": 7751,
      "בנושאים": 7752,
      "מגנטים": 7753,
      "היישוב": 7754,
      "החוצה": 7755,
      "הרופא": 7756,
      "הפרס": 7757,
      "מחזור": 7758,
      "השידור": 7759,
      "אוק": 7760,
      "##אפ": 7761,
      "##חתו": 7762,
      "למדינה": 7763,
      "לפיה": 7764,
      "אקוסט": 7765,
      "תחבורה": 7766,
      "יתכן": 7767,
      "##ויד": 7768,
      "יוקר": 7769,
      "רחובות": 7770,
      "##affa": 7771,
      "##one": 7772,
      "הבין": 7773,
      "190": 7774,
      "נדל": 7775,
      "##פוי": 7776,
      "להוביל": 7777,
      "##פסות": 7778,
      "me": 7779,
      "היי": 7780,
      "נותר": 7781,
      "##מצם": 7782,
      "עבודתו": 7783,
      "##כסוך": 7784,
      "זיכרון": 7785,
      "רפואה": 7786,
      "jaffa": 7787,
      "הפיק": 7788,
      "##יסטי": 7789,
      "שלל": 7790,
      "יגאל": 7791,
      "ההוא": 7792,
      "היוע": 7793,
      "צב": 7794,
      "בידוד": 7795,
      "התמונות": 7796,
      "ויז": 7797,
      "מוגבל": 7798,
      "סיג": 7799,
      "77": 7800,
      "פאר": 7801,
      "##פד": 7802,
      "##הם": 7803,
      "האות": 7804,
      "השמאל": 7805,
      "##ומט": 7806,
      "##דמן": 7807,
      "##לינג": 7808,
      "go": 7809,
      "מנצ": 7810,
      "##סטרו": 7811,
      "הבאות": 7812,
      "בשדה": 7813,
      "ציבורי": 7814,
      "כוללים": 7815,
      "המנהל": 7816,
      "הונ": 7817,
      "הידוע": 7818,
      "סינ": 7819,
      "מפגש": 7820,
      "כתובת": 7821,
      "טו": 7822,
      "הכוחות": 7823,
      "בתפ": 7824,
      "מזכיר": 7825,
      "id": 7826,
      "הקודש": 7827,
      "ישת": 7828,
      "היסוד": 7829,
      "fr": 7830,
      "מתאר": 7831,
      "החתונה": 7832,
      "והשק": 7833,
      "ההבדל": 7834,
      "##ast": 7835,
      "##ברך": 7836,
      "עצום": 7837,
      "##יצג": 7838,
      "שקיבל": 7839,
      "לעד": 7840,
      "מודיעין": 7841,
      "התרח": 7842,
      "הקודמת": 7843,
      "הענק": 7844,
      "סנט": 7845,
      "מיש": 7846,
      "##фо": 7847,
      "##age": 7848,
      "ולכל": 7849,
      "צבאי": 7850,
      "הכלל": 7851,
      "נוכח": 7852,
      "החומרים": 7853,
      "סיוע": 7854,
      "##דרכה": 7855,
      "##סקו": 7856,
      "##ומך": 7857,
      "במאמר": 7858,
      "מגע": 7859,
      "בקיץ": 7860,
      "רצח": 7861,
      "תבניות": 7862,
      "עמיד": 7863,
      "התוצאות": 7864,
      "זצ": 7865,
      "##וסה": 7866,
      "לשכ": 7867,
      "בנסיבות": 7868,
      "במדינות": 7869,
      "##בנו": 7870,
      "שווי": 7871,
      "הפתרון": 7872,
      "שלאחר": 7873,
      "##רגיל": 7874,
      "אהבת": 7875,
      "תיר": 7876,
      "המסורת": 7877,
      "https": 7878,
      "62": 7879,
      "מתוק": 7880,
      "לדאוג": 7881,
      "השחקנים": 7882,
      "שהוצ": 7883,
      "##רבו": 7884,
      "המבקשים": 7885,
      "מבוסס": 7886,
      "להצטרף": 7887,
      "נווה": 7888,
      "##תחם": 7889,
      "כרי": 7890,
      "הקרובה": 7891,
      "2001": 7892,
      "בהשוואה": 7893,
      "##כין": 7894,
      "שטיחים": 7895,
      "טקס": 7896,
      "##ועי": 7897,
      "##מתם": 7898,
      "בוא": 7899,
      "איראן": 7900,
      "##טרסים": 7901,
      "מיקום": 7902,
      "תביעות": 7903,
      "##רוכות": 7904,
      "אזרחי": 7905,
      "זמני": 7906,
      "סמכות": 7907,
      "##ויי": 7908,
      "מערך": 7909,
      "##לחו": 7910,
      "##צרה": 7911,
      "ואכן": 7912,
      "רחבה": 7913,
      "אופניים": 7914,
      "התנ": 7915,
      "ארד": 7916,
      "גוש": 7917,
      "פרץ": 7918,
      "ברע": 7919,
      "הליכה": 7920,
      "בוודאי": 7921,
      "##40": 7922,
      "נדרשים": 7923,
      "тель": 7924,
      "העתיד": 7925,
      "ואתה": 7926,
      "נוכחים": 7927,
      "הידי": 7928,
      "דוגמה": 7929,
      "החוב": 7930,
      "מוסיפים": 7931,
      "##חיית": 7932,
      "הוות": 7933,
      "כוכבים": 7934,
      "##ед": 7935,
      "מעוד": 7936,
      "שמירה": 7937,
      "הכללית": 7938,
      "נקי": 7939,
      "יוחנן": 7940,
      "##לייה": 7941,
      "במדבר": 7942,
      "במדינת": 7943,
      "##פגש": 7944,
      "##pt": 7945,
      "##טין": 7946,
      "בריט": 7947,
      "תלמידי": 7948,
      "כשאני": 7949,
      "יפים": 7950,
      "об": 7951,
      "שנערך": 7952,
      "במז": 7953,
      "משטרת": 7954,
      "בשילוב": 7955,
      "מסעדות": 7956,
      "להמשך": 7957,
      "בסביבה": 7958,
      "שבמ": 7959,
      "העולמי": 7960,
      "שאולי": 7961,
      "החברתית": 7962,
      "##ma": 7963,
      "##ותן": 7964,
      "##ופטים": 7965,
      "התנאים": 7966,
      "ובד": 7967,
      "חשמ": 7968,
      "בתחומים": 7969,
      "כדוג": 7970,
      "##וחת": 7971,
      "אשראי": 7972,
      "הדו": 7973,
      "הפנימי": 7974,
      "##גרי": 7975,
      "##צועים": 7976,
      "עיסוק": 7977,
      "##ווין": 7978,
      "הינם": 7979,
      "הנזק": 7980,
      "ארוכות": 7981,
      "אקט": 7982,
      "ושונות": 7983,
      "הקרן": 7984,
      "להשתתף": 7985,
      "תוא": 7986,
      "hd": 7987,
      "מדעי": 7988,
      "עלו": 7989,
      "авив": 7990,
      "לאזור": 7991,
      "כרמל": 7992,
      "לומדים": 7993,
      "המיני": 7994,
      "מוחמד": 7995,
      "באים": 7996,
      "הקטנה": 7997,
      "במשק": 7998,
      "שיהיו": 7999,
      "לתקופה": 8000,
      "##יסטיקה": 8001,
      "##ובו": 8002,
      "הוקמה": 8003,
      "##פתחו": 8004,
      "##ננו": 8005,
      "##רגן": 8006,
      "לפרס": 8007,
      "תיאטרון": 8008,
      "##כלל": 8009,
      "яф": 8010,
      "מסיבות": 8011,
      "דעות": 8012,
      "שמב": 8013,
      "השניה": 8014,
      "##ver": 8015,
      "##למי": 8016,
      "גגות": 8017,
      "המסלול": 8018,
      "##סקנה": 8019,
      "משלי": 8020,
      "ושי": 8021,
      "המכשיר": 8022,
      "ин": 8023,
      "##90": 8024,
      "##נאביס": 8025,
      "הגבול": 8026,
      "##rong": 8027,
      "##פרץ": 8028,
      "##שבו": 8029,
      "תשתיות": 8030,
      "##טוק": 8031,
      "יציר": 8032,
      "שחלק": 8033,
      "סרטן": 8034,
      "##רתם": 8035,
      "הפיז": 8036,
      "66": 8037,
      "לנצח": 8038,
      "##כנה": 8039,
      "בהר": 8040,
      "מבקשת": 8041,
      "ושירות": 8042,
      "הקטנים": 8043,
      "הרלוו": 8044,
      "המקומי": 8045,
      "מנוע": 8046,
      "beit": 8047,
      "ייחודית": 8048,
      "אגף": 8049,
      "עלתה": 8050,
      "האמריקאית": 8051,
      "הישראלים": 8052,
      "##צהיר": 8053,
      "##קטור": 8054,
      "מאוח": 8055,
      "##וריית": 8056,
      "החשובים": 8057,
      "ווי": 8058,
      "##ידך": 8059,
      "במרחק": 8060,
      "яффо": 8061,
      "האיס": 8062,
      "כדורגל": 8063,
      "להשפיע": 8064,
      "לגן": 8065,
      "##בקות": 8066,
      "אשדוד": 8067,
      "האנרגיה": 8068,
      "הלידה": 8069,
      "הרבי": 8070,
      "מתחילה": 8071,
      "תפקידו": 8072,
      "##טרקט": 8073,
      "הקיים": 8074,
      "מתמחה": 8075,
      "אירוח": 8076,
      "ערים": 8077,
      "הקלי": 8078,
      "לפעילות": 8079,
      "נהדר": 8080,
      "ביאליק": 8081,
      "יצירות": 8082,
      "הסיכון": 8083,
      "מאוב": 8084,
      "שתהיה": 8085,
      "##צחון": 8086,
      "אמה": 8087,
      "וכבר": 8088,
      "שנקרא": 8089,
      "הזמנים": 8090,
      "der": 8091,
      "הטכנ": 8092,
      "טוענים": 8093,
      "הנביא": 8094,
      "##ולוגים": 8095,
      "בארגון": 8096,
      "הסטודנטים": 8097,
      "הרמה": 8098,
      "עכו": 8099,
      "התז": 8100,
      "##יקאי": 8101,
      "##דרגה": 8102,
      "מוצלח": 8103,
      "באחת": 8104,
      "דוב": 8105,
      "זהה": 8106,
      "##גול": 8107,
      "מחנה": 8108,
      "ערכים": 8109,
      "מחשבה": 8110,
      "ניסה": 8111,
      "##עור": 8112,
      "##ליית": 8113,
      "המכונה": 8114,
      "בכירה": 8115,
      "##כא": 8116,
      "##חזר": 8117,
      "##מינו": 8118,
      "העיקרית": 8119,
      "ערו": 8120,
      "וחד": 8121,
      "##וננות": 8122,
      "שייך": 8123,
      "##פסים": 8124,
      "##וניברסיטת": 8125,
      "##עדות": 8126,
      "##יננו": 8127,
      "מהירות": 8128,
      "xxxxx": 8129,
      "אפרים": 8130,
      "הצעות": 8131,
      "להי": 8132,
      "המקצועי": 8133,
      "ארגונים": 8134,
      "שיטה": 8135,
      "השקעה": 8136,
      "והר": 8137,
      "שניה": 8138,
      "נוסעים": 8139,
      "לידה": 8140,
      "הערך": 8141,
      "בסט": 8142,
      "אמן": 8143,
      "האנושי": 8144,
      "שגור": 8145,
      "שהמש": 8146,
      "סטט": 8147,
      "שתק": 8148,
      "יבנה": 8149,
      "בסדרה": 8150,
      "מסק": 8151,
      "הבנה": 8152,
      "היצירה": 8153,
      "הוקם": 8154,
      "למספר": 8155,
      "מאסר": 8156,
      "התחרות": 8157,
      "ואשר": 8158,
      "מובן": 8159,
      "strong": 8160,
      "דומים": 8161,
      "הביניים": 8162,
      "הגורמים": 8163,
      "נוחה": 8164,
      "##מצים": 8165,
      "##בחר": 8166,
      "נעימה": 8167,
      "72": 8168,
      "בחינם": 8169,
      "האוכלוסייה": 8170,
      "##ולנו": 8171,
      "המסך": 8172,
      "בעלה": 8173,
      "שורה": 8174,
      "חלה": 8175,
      "ציין": 8176,
      "מחלה": 8177,
      "##ec": 8178,
      "##פיץ": 8179,
      "##ומרי": 8180,
      "##פלה": 8181,
      "בוחרים": 8182,
      "מסוי": 8183,
      "120": 8184,
      "בעבוד": 8185,
      "##ירושין": 8186,
      "מדריך": 8187,
      "##ator": 8188,
      "ספרו": 8189,
      "##כנתא": 8190,
      "##וויית": 8191,
      "##כונים": 8192,
      "העלייה": 8193,
      "ממשיכים": 8194,
      "רישום": 8195,
      "תושבים": 8196,
      "##כוז": 8197,
      "דרכי": 8198,
      "##ודעת": 8199,
      "בעיית": 8200,
      "ילדה": 8201,
      "##יצב": 8202,
      "בקרית": 8203,
      "gt": 8204,
      "##בנים": 8205,
      "הצעירים": 8206,
      "מתכת": 8207,
      "פיל": 8208,
      "בקו": 8209,
      "למשרד": 8210,
      "לפרסם": 8211,
      "השוט": 8212,
      "##וגרפ": 8213,
      "הנוגע": 8214,
      "שהגיעו": 8215,
      "מספרים": 8216,
      "מקל": 8217,
      "אהרון": 8218,
      "אורן": 8219,
      "##סיקה": 8220,
      "מזרחי": 8221,
      "93": 8222,
      "התשלום": 8223,
      "לעסקים": 8224,
      "כק": 8225,
      "בנתניה": 8226,
      "עצמנו": 8227,
      "לרשת": 8228,
      "צורת": 8229,
      "הצרכ": 8230,
      "##ain": 8231,
      "##iy": 8232,
      "##כליים": 8233,
      "ישיבת": 8234,
      "המחלקה": 8235,
      "##יעוט": 8236,
      "מהבית": 8237,
      "מורכבת": 8238,
      "החייב": 8239,
      "##שכת": 8240,
      "נפתח": 8241,
      "החת": 8242,
      "קרים": 8243,
      "פנימי": 8244,
      "נוט": 8245,
      "##לקים": 8246,
      "מיכלי": 8247,
      "אייל": 8248,
      "השליטה": 8249,
      "להאמין": 8250,
      "##ובא": 8251,
      "תומכים": 8252,
      "ser": 8253,
      "##חלטות": 8254,
      "התכנון": 8255,
      "הבדל": 8256,
      "הטקסט": 8257,
      "מקרי": 8258,
      "לשנה": 8259,
      "בקבוצה": 8260,
      "זכו": 8261,
      "להצלחה": 8262,
      "האוניברסיטה": 8263,
      "רוד": 8264,
      "משרדי": 8265,
      "המשפטים": 8266,
      "##יאים": 8267,
      "הדיו": 8268,
      "עקיבא": 8269,
      "##רבעה": 8270,
      "החליטה": 8271,
      "mic": 8272,
      "##מאי": 8273,
      "##גון": 8274,
      "פייסבוק": 8275,
      "האול": 8276,
      "הכרח": 8277,
      "אמונה": 8278,
      "חיפוי": 8279,
      "##זוק": 8280,
      "עבירות": 8281,
      "הרביעי": 8282,
      "לסט": 8283,
      "נפלא": 8284,
      "##000": 8285,
      "לדיון": 8286,
      "הורה": 8287,
      "יעלה": 8288,
      "פוליטית": 8289,
      "##פעמים": 8290,
      "מספקים": 8291,
      "גבול": 8292,
      "הנכס": 8293,
      "##קרון": 8294,
      "תקוה": 8295,
      "ללמד": 8296,
      "האיט": 8297,
      "בחזרה": 8298,
      "מאבק": 8299,
      "משך": 8300,
      "##ליג": 8301,
      "שיט": 8302,
      "##ריהם": 8303,
      "##ייט": 8304,
      "מינית": 8305,
      "ללח": 8306,
      "כף": 8307,
      "יהדות": 8308,
      "ידעו": 8309,
      "עופר": 8310,
      "הבכיר": 8311,
      "אחוזים": 8312,
      "ההול": 8313,
      "##נסקי": 8314,
      "נודע": 8315,
      "מנד": 8316,
      "איכותיים": 8317,
      "##בחין": 8318,
      "הטכנולוגיה": 8319,
      "63": 8320,
      "68": 8321,
      "נפטר": 8322,
      "נבחרת": 8323,
      "##יטליה": 8324,
      "##דרגות": 8325,
      "לקידום": 8326,
      "אויר": 8327,
      "חסי": 8328,
      "##ang": 8329,
      "בים": 8330,
      "la": 8331,
      "הניק": 8332,
      "ספטמבר": 8333,
      "שנראה": 8334,
      "ואפשר": 8335,
      "מנשה": 8336,
      "לחודש": 8337,
      "רישיון": 8338,
      "העיניים": 8339,
      "##tm": 8340,
      "ברוח": 8341,
      "אסף": 8342,
      "##ona": 8343,
      "בגודל": 8344,
      "הטלפון": 8345,
      "יגיע": 8346,
      "אנדר": 8347,
      "מספרת": 8348,
      "ומפ": 8349,
      "בצרפת": 8350,
      "ובג": 8351,
      "החשוב": 8352,
      "הרצליה": 8353,
      "שהד": 8354,
      "##כשירים": 8355,
      "מומל": 8356,
      "עליהן": 8357,
      "פניו": 8358,
      "ידיים": 8359,
      "##ודיע": 8360,
      "הערבית": 8361,
      "מעשי": 8362,
      "תיכ": 8363,
      "היעד": 8364,
      "מאמץ": 8365,
      "##ord": 8366,
      "אהבתי": 8367,
      "אצלי": 8368,
      "פועלת": 8369,
      "רדיו": 8370,
      "לשתף": 8371,
      "היקף": 8372,
      "רוס": 8373,
      "מרים": 8374,
      "המשתתפים": 8375,
      "##בורת": 8376,
      "הניסיון": 8377,
      "כמש": 8378,
      "ליווי": 8379,
      "דרג": 8380,
      "הצליחה": 8381,
      "לגד": 8382,
      "41": 8383,
      "החקירה": 8384,
      "מיטב": 8385,
      "המשיבים": 8386,
      "##בדה": 8387,
      "##ry": 8388,
      "##בדות": 8389,
      "בביט": 8390,
      "אסטרטג": 8391,
      "שרוצה": 8392,
      "תות": 8393,
      "הנחה": 8394,
      "מודל": 8395,
      "פסח": 8396,
      "her": 8397,
      "בכירים": 8398,
      "דפוס": 8399,
      "מתייחס": 8400,
      "תופעות": 8401,
      "eng": 8402,
      "ועדיין": 8403,
      "וערבים": 8404,
      "לתא": 8405,
      "המרכ": 8406,
      "והמו": 8407,
      "תזונה": 8408,
      "ופת": 8409,
      "##פיר": 8410,
      "יופי": 8411,
      "ההלכה": 8412,
      "##derot": 8413,
      "נוחות": 8414,
      "עלולים": 8415,
      "הכביש": 8416,
      "טיפולים": 8417,
      "חוג": 8418,
      "##ייקט": 8419,
      "הגמ": 8420,
      "ותה": 8421,
      "להשאיר": 8422,
      "כשהם": 8423,
      "הדירות": 8424,
      "סוציא": 8425,
      "אינס": 8426,
      "טיולים": 8427,
      "cont": 8428,
      "עמוס": 8429,
      "##לר": 8430,
      "דתי": 8431,
      "נקודה": 8432,
      "##צביע": 8433,
      "הייח": 8434,
      "נערך": 8435,
      "מנק": 8436,
      "##בנות": 8437,
      "לפיתוח": 8438,
      "##רף": 8439,
      "ולקבל": 8440,
      "המאבק": 8441,
      "מנהיג": 8442,
      "לעת": 8443,
      "אנטי": 8444,
      "בתוכו": 8445,
      "הרגשתי": 8446,
      "שבועיים": 8447,
      "##קיף": 8448,
      "ערי": 8449,
      "##erus": 8450,
      "##כתבו": 8451,
      "עציר": 8452,
      "מופע": 8453,
      "בוו": 8454,
      "##למד": 8455,
      "בתאריך": 8456,
      "טכנולוגיות": 8457,
      "מפלגת": 8458,
      "ילדות": 8459,
      "ארגוני": 8460,
      "##ופק": 8461,
      "מאפשרים": 8462,
      "באול": 8463,
      "פסולת": 8464,
      "הבול": 8465,
      "אמיר": 8466,
      "המערע": 8467,
      "הממל": 8468,
      "גבע": 8469,
      "לחברות": 8470,
      "לחק": 8471,
      "##ואלית": 8472,
      "הקרובים": 8473,
      "נחמד": 8474,
      "נרחב": 8475,
      "##ix": 8476,
      "בתשלום": 8477,
      "##עז": 8478,
      "##ודרת": 8479,
      "איפ": 8480,
      "בשעת": 8481,
      "התינוק": 8482,
      "בעבור": 8483,
      "69": 8484,
      "מתחם": 8485,
      "##net": 8486,
      "מיוחדות": 8487,
      "בטוחה": 8488,
      "##וכבים": 8489,
      "הסימ": 8490,
      "51": 8491,
      "##מעת": 8492,
      "בפייסבוק": 8493,
      "לינ": 8494,
      "טיסות": 8495,
      "בלשון": 8496,
      "##לטו": 8497,
      "תעודת": 8498,
      "מובה": 8499,
      "ספיר": 8500,
      "חירום": 8501,
      "##גוריות": 8502,
      "שבעה": 8503,
      "מודע": 8504,
      "איטליה": 8505,
      "בנים": 8506,
      "סיד": 8507,
      "התס": 8508,
      "##003": 8509,
      "##ישן": 8510,
      "מסכים": 8511,
      "מסתבר": 8512,
      "##פסו": 8513,
      "##יכום": 8514,
      "העיתון": 8515,
      "האחים": 8516,
      "סלי": 8517,
      "ash": 8518,
      "לצרכ": 8519,
      "לשוק": 8520,
      "הנדל": 8521,
      "נבד": 8522,
      "מאגר": 8523,
      "אפל": 8524,
      "השכר": 8525,
      "אמון": 8526,
      "החלטתי": 8527,
      "וחש": 8528,
      "מתאימים": 8529,
      "בקריית": 8530,
      "מתנות": 8531,
      "יצאה": 8532,
      "בהיסטוריה": 8533,
      "לכמה": 8534,
      "סרטי": 8535,
      "וינ": 8536,
      "92": 8537,
      "תעשיית": 8538,
      "ביב": 8539,
      "##טיילים": 8540,
      "התוכן": 8541,
      "##ותרות": 8542,
      "##צוף": 8543,
      "נועד": 8544,
      "בנצרת": 8545,
      "שירי": 8546,
      "מיס": 8547,
      "תיירות": 8548,
      "אשקלון": 8549,
      "תוק": 8550,
      "לוב": 8551,
      "##יחסים": 8552,
      "ותע": 8553,
      "##זמה": 8554,
      "הרוב": 8555,
      "וממ": 8556,
      "בצבא": 8557,
      "אלח": 8558,
      "שפירא": 8559,
      "##ובסקי": 8560,
      "עשרים": 8561,
      "עבירה": 8562,
      "גופים": 8563,
      "הקשורים": 8564,
      "לעזוב": 8565,
      "ליפ": 8566,
      "קניון": 8567,
      "הגיל": 8568,
      "גינון": 8569,
      "בגרמניה": 8570,
      "עובדה": 8571,
      "##יגוד": 8572,
      "פלט": 8573,
      "ייס": 8574,
      "מוספים": 8575,
      "new": 8576,
      "כיון": 8577,
      "וכש": 8578,
      "העתי": 8579,
      "##ננת": 8580,
      "מקבלת": 8581,
      "הכספים": 8582,
      "##נקה": 8583,
      "sderot": 8584,
      "##ינגטון": 8585,
      "אבני": 8586,
      "כעבור": 8587,
      "##ics": 8588,
      "רבין": 8589,
      "תוצאה": 8590,
      "עשיתי": 8591,
      "מדהימה": 8592,
      "##ult": 8593,
      "הנהלת": 8594,
      "זמנית": 8595,
      "פיט": 8596,
      "הדתי": 8597,
      "לרגל": 8598,
      "man": 8599,
      "250": 8600,
      "רשימה": 8601,
      "##משלה": 8602,
      "זוגות": 8603,
      "בכנס": 8604,
      "אשכנ": 8605,
      "מחפש": 8606,
      "מפח": 8607,
      "שמר": 8608,
      "שמעתי": 8609,
      "לגוף": 8610,
      "היהדות": 8611,
      "##הה": 8612,
      "וניתן": 8613,
      "##שראי": 8614,
      "העץ": 8615,
      "בקיצור": 8616,
      "##ליטת": 8617,
      "משלב": 8618,
      "לפתור": 8619,
      "דיור": 8620,
      "##בקים": 8621,
      "עות": 8622,
      "##והו": 8623,
      "##מיון": 8624,
      "העק": 8625,
      "רגילה": 8626,
      "##נהלת": 8627,
      "הנוכחית": 8628,
      "להפעיל": 8629,
      "ובמיוחד": 8630,
      "##ושבי": 8631,
      "מוחלט": 8632,
      "ישע": 8633,
      "דרישות": 8634,
      "##יזו": 8635,
      "קראתי": 8636,
      "עידן": 8637,
      "##יקלי": 8638,
      "הכלכלית": 8639,
      "2019": 8640,
      "לאן": 8641,
      "sm": 8642,
      "##אתר": 8643,
      "הכנה": 8644,
      "הניתוח": 8645,
      "הרגע": 8646,
      "חוזרים": 8647,
      "התאונה": 8648,
      "79": 8649,
      "תנאים": 8650,
      "בסיום": 8651,
      "להודות": 8652,
      "נתוני": 8653,
      "וביק": 8654,
      "המורה": 8655,
      "הגעתי": 8656,
      "##מיקה": 8657,
      "האינט": 8658,
      "פרופסור": 8659,
      "בחור": 8660,
      "76": 8661,
      "תנ": 8662,
      "פרא": 8663,
      "מתרח": 8664,
      "##ber": 8665,
      "הקלא": 8666,
      "בבניין": 8667,
      "האישית": 8668,
      "הרפ": 8669,
      "במועד": 8670,
      "מרץ": 8671,
      "##כבים": 8672,
      "הלבן": 8673,
      "הרומ": 8674,
      "איילון": 8675,
      "ספרד": 8676,
      "##לד": 8677,
      "בתחרות": 8678,
      "אומנות": 8679,
      "המוות": 8680,
      "##רישה": 8681,
      "##לנו": 8682,
      "עיבוד": 8683,
      "חמור": 8684,
      "מנהלים": 8685,
      "כשהיא": 8686,
      "ושמ": 8687,
      "בשמ": 8688,
      "בבת": 8689,
      "לית": 8690,
      "גג": 8691,
      "סיבות": 8692,
      "שיס": 8693,
      "##מכות": 8694,
      "פיו": 8695,
      "עוק": 8696,
      "ספא": 8697,
      "רט": 8698,
      "ונות": 8699,
      "מסורת": 8700,
      "לענות": 8701,
      "דרור": 8702,
      "וקר": 8703,
      "קולות": 8704,
      "בטי": 8705,
      "ערבי": 8706,
      "חשיבה": 8707,
      "מעוניין": 8708,
      "ההשפ": 8709,
      "ובז": 8710,
      "קיצוני": 8711,
      "##עתה": 8712,
      "96": 8713,
      "האורחים": 8714,
      "יומיים": 8715,
      "ממי": 8716,
      "המניות": 8717,
      "נראית": 8718,
      "##ופע": 8719,
      "מוסיקה": 8720,
      "##כמת": 8721,
      "ינואר": 8722,
      "גבוהות": 8723,
      "מעליות": 8724,
      "שמאפשר": 8725,
      "##פץ": 8726,
      "בהתחלה": 8727,
      "להקת": 8728,
      "החלפת": 8729,
      "סדנאות": 8730,
      "השולחן": 8731,
      "הופעות": 8732,
      "##ect": 8733,
      "הנכונה": 8734,
      "צורה": 8735,
      "כור": 8736,
      "הפרדה": 8737,
      "##זרע": 8738,
      "מדד": 8739,
      "המשותף": 8740,
      "להציל": 8741,
      "ומאפשר": 8742,
      "לגור": 8743,
      "במשקל": 8744,
      "##פרש": 8745,
      "##שיון": 8746,
      "שקד": 8747,
      "בנושאי": 8748,
      "המשחקים": 8749,
      "ירקות": 8750,
      "השע": 8751,
      "לדון": 8752,
      "מוגנים": 8753,
      "ואה": 8754,
      "##דמנויות": 8755,
      "החלל": 8756,
      "##מפיין": 8757,
      "##וטובוס": 8758,
      "##צק": 8759,
      "##למו": 8760,
      "השיער": 8761,
      "הרה": 8762,
      "ספות": 8763,
      "בוע": 8764,
      "##יעץ": 8765,
      "טיפולי": 8766,
      "לזמן": 8767,
      "ארצה": 8768,
      "##לתם": 8769,
      "##פלד": 8770,
      "בראיון": 8771,
      "קרק": 8772,
      "בגדים": 8773,
      "##uuuuuuuuuuuuuuuu": 8774,
      "##פתור": 8775,
      "השכרת": 8776,
      "##טב": 8777,
      "החוקרים": 8778,
      "בחירות": 8779,
      "ודאי": 8780,
      "אמי": 8781,
      "נחושת": 8782,
      "##33": 8783,
      "המראה": 8784,
      "##ריא": 8785,
      "חלל": 8786,
      "אהרן": 8787,
      "אישיים": 8788,
      "##ולית": 8789,
      "קיבלתי": 8790,
      "הצו": 8791,
      "הטענה": 8792,
      "##בתא": 8793,
      "##בדו": 8794,
      "רגשות": 8795,
      "דקה": 8796,
      "##ml": 8797,
      "##דיקים": 8798,
      "בבי": 8799,
      "הפעלה": 8800,
      "ובית": 8801,
      "ולכ": 8802,
      "##חתת": 8803,
      "בערוץ": 8804,
      "הופכת": 8805,
      "##צרי": 8806,
      "##וכנים": 8807,
      "הירדן": 8808,
      "נטען": 8809,
      "##לאם": 8810,
      "משפחתי": 8811,
      "ומעלה": 8812,
      "מסמך": 8813,
      "פרסם": 8814,
      "החליטו": 8815,
      "סובל": 8816,
      "##ניתוח": 8817,
      "המטבח": 8818,
      "המגיע": 8819,
      "אחסון": 8820,
      "להחליט": 8821,
      "מוצאים": 8822,
      "88": 8823,
      "office": 8824,
      "לבנון": 8825,
      "##arm": 8826,
      "ורד": 8827,
      "המקרה": 8828,
      "לנח": 8829,
      "##25": 8830,
      "הזמנה": 8831,
      "הבדיקה": 8832,
      "##יטרינג": 8833,
      "טכנולוגיה": 8834,
      "בבעלות": 8835,
      "התעשייה": 8836,
      "הפלסטינים": 8837,
      "בכלי": 8838,
      "שרוב": 8839,
      "שאן": 8840,
      "תופעה": 8841,
      "ומר": 8842,
      "##דג": 8843,
      "fl": 8844,
      "זקוקים": 8845,
      "##יסא": 8846,
      "הביקורת": 8847,
      "גרע": 8848,
      "מחש": 8849,
      "התחלתי": 8850,
      "בפנים": 8851,
      "לתחום": 8852,
      "האיכות": 8853,
      "מחד": 8854,
      "פונק": 8855,
      "##פליק": 8856,
      "אחז": 8857,
      "בדיון": 8858,
      "##יטוא": 8859,
      "לעיצוב": 8860,
      "##ופרים": 8861,
      "הסכום": 8862,
      "מסי": 8863,
      "הגן": 8864,
      "פוליטי": 8865,
      "שהתח": 8866,
      "היית": 8867,
      "##era": 8868,
      "המוט": 8869,
      "היפה": 8870,
      "מלמד": 8871,
      "השראה": 8872,
      "##חקרים": 8873,
      "להקמת": 8874,
      "##אתו": 8875,
      "מוני": 8876,
      "עמודים": 8877,
      "הדיג": 8878,
      "אמורה": 8879,
      "מוכרים": 8880,
      "למועד": 8881,
      "זל": 8882,
      "פתיחה": 8883,
      "דגים": 8884,
      "שישה": 8885,
      "אלוף": 8886,
      "מיידי": 8887,
      "מודה": 8888,
      "הגולן": 8889,
      "במציאות": 8890,
      "בעני": 8891,
      "בטלפון": 8892,
      "קריית": 8893,
      "78": 8894,
      "מלכת": 8895,
      "מידת": 8896,
      "המועצות": 8897,
      "wh": 8898,
      "שמורות": 8899,
      "הערים": 8900,
      "הקיב": 8901,
      "##יתונים": 8902,
      "אמריקאי": 8903,
      "סיים": 8904,
      "89": 8905,
      "להגדיל": 8906,
      "מצביע": 8907,
      "תוקף": 8908,
      "מצאו": 8909,
      "חופשה": 8910,
      "הרים": 8911,
      "בפרי": 8912,
      "הטיול": 8913,
      "רמון": 8914,
      "השיווק": 8915,
      "##ידוע": 8916,
      "לגיט": 8917,
      "##ננות": 8918,
      "זוהר": 8919,
      "חקירה": 8920,
      "המוכר": 8921,
      "הדמויות": 8922,
      "הופכים": 8923,
      "##ork": 8924,
      "דוגמאות": 8925,
      "חולה": 8926,
      "##יתוך": 8927,
      "דיין": 8928,
      "שאנשים": 8929,
      "מייס": 8930,
      "##ודעות": 8931,
      "נוכחות": 8932,
      "##alem": 8933,
      "החורף": 8934,
      "בציבור": 8935,
      "מוסד": 8936,
      "ושות": 8937,
      "מקיף": 8938,
      "שקורה": 8939,
      "להקל": 8940,
      "בתוספת": 8941,
      "מדרגות": 8942,
      "##פירה": 8943,
      "נובמבר": 8944,
      "השאלות": 8945,
      "er": 8946,
      "הצפון": 8947,
      "מכירת": 8948,
      "רון": 8949,
      "באוניברסיטה": 8950,
      "אדומים": 8951,
      "יונה": 8952,
      "המצוי": 8953,
      "באג": 8954,
      "העיתונ": 8955,
      "מעקות": 8956,
      "פסטיבל": 8957,
      "לרדת": 8958,
      "##ודם": 8959,
      "החלב": 8960,
      "לניהול": 8961,
      "xxxxxx": 8962,
      "##ניר": 8963,
      "נכסי": 8964,
      "##הו": 8965,
      "כיסוי": 8966,
      "שאח": 8967,
      "אלהים": 8968,
      "מסייע": 8969,
      "הגלי": 8970,
      "מורים": 8971,
      "הסופר": 8972,
      "באיזור": 8973,
      "נופש": 8974,
      "אוקטובר": 8975,
      "נציגי": 8976,
      "לירושלים": 8977,
      "בעמ": 8978,
      "##ורסה": 8979,
      "קורות": 8980,
      "התנגדות": 8981,
      "אנרג": 8982,
      "עדן": 8983,
      "##ue": 8984,
      "מעורב": 8985,
      "מעדי": 8986,
      "הדרכה": 8987,
      "##מכת": 8988,
      "מיליוני": 8989,
      "הכשרה": 8990,
      "הנוג": 8991,
      "חוזרת": 8992,
      "גו": 8993,
      "חמאס": 8994,
      "ככ": 8995,
      "ושר": 8996,
      "1999": 8997,
      "תקרות": 8998,
      "רצוע": 8999,
      "שמכ": 9000,
      "##ith": 9001,
      "חובות": 9002,
      "הטעם": 9003,
      "מסגרת": 9004,
      "עצמך": 9005,
      "ובלי": 9006,
      "בטבע": 9007,
      "שלטון": 9008,
      "ושב": 9009,
      "תאריך": 9010,
      "##ла": 9011,
      "גברי": 9012,
      "אלכסנדר": 9013,
      "אתו": 9014,
      "73": 9015,
      "אבטחה": 9016,
      "האמצ": 9017,
      "מרגישים": 9018,
      "באיזה": 9019,
      "ביע": 9020,
      "##רתו": 9021,
      "המותג": 9022,
      "לשיר": 9023,
      "##זבים": 9024,
      "התחי": 9025,
      "וממש": 9026,
      "באפשרות": 9027,
      "האשראי": 9028,
      "##שיה": 9029,
      "מדויק": 9030,
      "##סטה": 9031,
      "הגמר": 9032,
      "דואר": 9033,
      "הביטוי": 9034,
      "החוויה": 9035,
      "עוזר": 9036,
      "בטוחים": 9037,
      "##24": 9038,
      "הכהן": 9039,
      "סגור": 9040,
      "##ילוסופיה": 9041,
      "הכרמל": 9042,
      "##ימיות": 9043,
      "מחבר": 9044,
      "מנהלי": 9045,
      "##ציין": 9046,
      "на": 9047,
      "חלקה": 9048,
      "עוף": 9049,
      "נשימה": 9050,
      "##ולא": 9051,
      "##גלי": 9052,
      "##еи": 9053,
      "במקצוע": 9054,
      "בעמוד": 9055,
      "##וללת": 9056,
      "המבט": 9057,
      "##ire": 9058,
      "##ens": 9059,
      "דהיינו": 9060,
      "שקי": 9061,
      "כצ": 9062,
      "סטר": 9063,
      "74": 9064,
      "שנעשה": 9065,
      "מפס": 9066,
      "להופיע": 9067,
      "און": 9068,
      "החט": 9069,
      "##צאים": 9070,
      "##ия": 9071,
      "לעם": 9072,
      "יתרונות": 9073,
      "תעשה": 9074,
      "דיוק": 9075,
      "אנא": 9076,
      "אוסף": 9077,
      "לנושא": 9078,
      "הגענו": 9079,
      "בריטניה": 9080,
      "##כנות": 9081,
      "והמח": 9082,
      "יעוץ": 9083,
      "קצה": 9084,
      "בביצוע": 9085,
      "ובהם": 9086,
      "מתנד": 9087,
      "לסגור": 9088,
      "ומוס": 9089,
      "שעשו": 9090,
      "יואב": 9091,
      "בעונה": 9092,
      "##צינות": 9093,
      "##שלנות": 9094,
      "אלטרנט": 9095,
      "משבר": 9096,
      "הצלח": 9097,
      "להנ": 9098,
      "במקור": 9099,
      "המדה": 9100,
      "##בין": 9101,
      "לצור": 9102,
      "כתיבה": 9103,
      "##למנט": 9104,
      "פלפל": 9105,
      "חמו": 9106,
      "הרפואה": 9107,
      "##לקי": 9108,
      "חוקרים": 9109,
      "לרע": 9110,
      "הטרור": 9111,
      "מיה": 9112,
      "##וחרים": 9113,
      "##erusalem": 9114,
      "מובילים": 9115,
      "לתאר": 9116,
      "סיב": 9117,
      "סגל": 9118,
      "##man": 9119,
      "כתבי": 9120,
      "מוזיאון": 9121,
      "מתקדמים": 9122,
      "ייק": 9123,
      "האדום": 9124,
      "העולמית": 9125,
      "נחשבת": 9126,
      "הבת": 9127,
      "תחנות": 9128,
      "##ign": 9129,
      "שותף": 9130,
      "ха": 9131,
      "jerusalem": 9132,
      "המספר": 9133,
      "בתה": 9134,
      "בשבי": 9135,
      "מהט": 9136,
      "##פרק": 9137,
      "הסוף": 9138,
      "האמונה": 9139,
      "וכיו": 9140,
      "וסי": 9141,
      "עליי": 9142,
      "אנוש": 9143,
      "פרטיות": 9144,
      "עשתה": 9145,
      "גמר": 9146,
      "הקבלה": 9147,
      "אחי": 9148,
      "אליך": 9149,
      "יקבל": 9150,
      "למשפחה": 9151,
      "להגדיר": 9152,
      "##pr": 9153,
      "התקנת": 9154,
      "##מעלה": 9155,
      "המיוע": 9156,
      "##דיאל": 9157,
      "ההיסטור": 9158,
      "ציור": 9159,
      "פינה": 9160,
      "כניסת": 9161,
      "חוט": 9162,
      "חברתיים": 9163,
      "ובמה": 9164,
      "ניצחון": 9165,
      "במוצ": 9166,
      "המרה": 9167,
      "u003": 9168,
      "1998": 9169,
      "##ימונים": 9170,
      "המין": 9171,
      "עמותת": 9172,
      "החיל": 9173,
      "באשדוד": 9174,
      "גדרות": 9175,
      "##בדים": 9176,
      "עובדות": 9177,
      "קמח": 9178,
      "ראיות": 9179,
      "##אונת": 9180,
      "##ומדת": 9181,
      "מקובל": 9182,
      "##טייה": 9183,
      "החרדי": 9184,
      "##du": 9185,
      "##רגם": 9186,
      "מצליחים": 9187,
      "נולדה": 9188,
      "##פויות": 9189,
      "בחצר": 9190,
      "משרדים": 9191,
      "##לולים": 9192,
      "עיצ": 9193,
      "##וכות": 9194,
      "הבעל": 9195,
      "מבחן": 9196,
      "מרע": 9197,
      "לבנים": 9198,
      "סוריה": 9199,
      "בארי": 9200,
      "פוט": 9201,
      "##ets": 9202,
      "מלכות": 9203,
      "כלה": 9204,
      "הלל": 9205,
      "בעין": 9206,
      "##ide": 9207,
      "עמק": 9208,
      "מהווים": 9209,
      "וניהול": 9210,
      "הסרטים": 9211,
      "הסתי": 9212,
      "קראו": 9213,
      "##יפל": 9214,
      "שעשה": 9215,
      "##לוות": 9216,
      "##ian": 9217,
      "בתחילה": 9218,
      "דינו": 9219,
      "שמטר": 9220,
      "##סטלציה": 9221,
      "ושאר": 9222,
      "נפשי": 9223,
      "הבק": 9224,
      "העמותה": 9225,
      "שיקול": 9226,
      "הפלסטינית": 9227,
      "מגיל": 9228,
      "היותר": 9229,
      "##int": 9230,
      "##שלם": 9231,
      "ארז": 9232,
      "ובעלי": 9233,
      "##ова": 9234,
      "חלום": 9235,
      "מינ": 9236,
      "שיחק": 9237,
      "יעד": 9238,
      "הביאו": 9239,
      "המכון": 9240,
      "##23": 9241,
      "המורים": 9242,
      "##סמו": 9243,
      "למכירה": 9244,
      "תכנים": 9245,
      "סדרה": 9246,
      "по": 9247,
      "השות": 9248,
      "וזהו": 9249,
      "##בדיל": 9250,
      "להחזיק": 9251,
      "מכוניות": 9252,
      "אוז": 9253,
      "פנימה": 9254,
      "שעדיין": 9255,
      "מכם": 9256,
      "אינני": 9257,
      "דימו": 9258,
      "סמל": 9259,
      "##נגליה": 9260,
      "בענף": 9261,
      "בכנסת": 9262,
      "והמע": 9263,
      "מוסיף": 9264,
      "מקומי": 9265,
      "הבנקים": 9266,
      "##חדות": 9267,
      "תרמי": 9268,
      "זרע": 9269,
      "##בטחה": 9270,
      "הסביר": 9271,
      "כרטיסים": 9272,
      "גיוס": 9273,
      "נאות": 9274,
      "הצרפת": 9275,
      "שביצ": 9276,
      "באוויר": 9277,
      "קלות": 9278,
      "לנסוע": 9279,
      "אחים": 9280,
      "sy": 9281,
      "אבנים": 9282,
      "כדין": 9283,
      "##ודנט": 9284,
      "דצמבר": 9285,
      "למות": 9286,
      "כרמ": 9287,
      "ומל": 9288,
      "הזמנת": 9289,
      "##ולמו": 9290,
      "במרחב": 9291,
      "הדוג": 9292,
      "המועדון": 9293,
      "אלפים": 9294,
      "נהר": 9295,
      "ההתא": 9296,
      "ונפ": 9297,
      "דרמ": 9298,
      "##רדית": 9299,
      "הבעלים": 9300,
      "רובם": 9301,
      "והמת": 9302,
      "##יחו": 9303,
      "##גבניות": 9304,
      "ישי": 9305,
      "בלונדון": 9306,
      "בטור": 9307,
      "##end": 9308,
      "##וצץ": 9309,
      "##כחות": 9310,
      "בתנאים": 9311,
      "יוג": 9312,
      "לחסוך": 9313,
      "חרדים": 9314,
      "יחידת": 9315,
      "ישיבות": 9316,
      "הספרות": 9317,
      "##יסו": 9318,
      "הודו": 9319,
      "תושב": 9320,
      "המכר": 9321,
      "ששת": 9322,
      "84": 9323,
      "הממשל": 9324,
      "מתה": 9325,
      "##und": 9326,
      "להשלים": 9327,
      "ביתו": 9328,
      "הופיע": 9329,
      "במחירים": 9330,
      "##70": 9331,
      "189": 9332,
      "##ונא": 9333,
      "בוצ": 9334,
      "הפשוט": 9335,
      "השיפ": 9336,
      "הקיר": 9337,
      "##ach": 9338,
      "וטוב": 9339,
      "##מצאת": 9340,
      "עסקה": 9341,
      "התברר": 9342,
      "קושי": 9343,
      "הודיעה": 9344,
      "##גלו": 9345,
      "הראשית": 9346,
      "##לילים": 9347,
      "##osh": 9348,
      "ממקום": 9349,
      "##тр": 9350,
      "הנגב": 9351,
      "קובץ": 9352,
      "שרצ": 9353,
      "פורט": 9354,
      "pre": 9355,
      "גלעד": 9356,
      "ישן": 9357,
      "איתנו": 9358,
      "ודר": 9359,
      "##מעו": 9360,
      "דובר": 9361,
      "האזרחים": 9362,
      "##ug": 9363,
      "הצעה": 9364,
      "מהל": 9365,
      "דשא": 9366,
      "##מצום": 9367,
      "הדרום": 9368,
      "חולון": 9369,
      "הסד": 9370,
      "לשאת": 9371,
      "מכונת": 9372,
      "לממשלה": 9373,
      "dis": 9374,
      "המקומות": 9375,
      "##ילם": 9376,
      "סיור": 9377,
      "מכונה": 9378,
      "לבת": 9379,
      "ינג": 9380,
      "לפניו": 9381,
      "הודעות": 9382,
      "כבלים": 9383,
      "##טרכו": 9384,
      "בהרצליה": 9385,
      "בספרו": 9386,
      "טיפים": 9387,
      "הפוליטית": 9388,
      "##רוח": 9389,
      "כלונס": 9390,
      "אפריל": 9391,
      "רעננה": 9392,
      "היצר": 9393,
      "לעצמם": 9394,
      "לשיפור": 9395,
      "בחלל": 9396,
      "האשה": 9397,
      "##יזון": 9398,
      "כרא": 9399,
      "דיגיט": 9400,
      "קיץ": 9401,
      "בחנות": 9402,
      "בתקשורת": 9403,
      "העצמי": 9404,
      "גילו": 9405,
      "הישן": 9406,
      "ממוקם": 9407,
      "##ריח": 9408,
      "תקבלו": 9409,
      "##וזיציה": 9410,
      "כשע": 9411,
      "##מז": 9412,
      "בקצב": 9413,
      "הפוסט": 9414,
      "בחרו": 9415,
      "##עדת": 9416,
      "הגאון": 9417,
      "##iel": 9418,
      "##ופרת": 9419,
      "אדר": 9420,
      "דנה": 9421,
      "האגודה": 9422,
      "סלול": 9423,
      "אוטומטי": 9424,
      "במתחם": 9425,
      "בגר": 9426,
      "הוסף": 9427,
      "ההצלחה": 9428,
      "##וזרים": 9429,
      "לטווח": 9430,
      "ובעל": 9431,
      "הדפסת": 9432,
      "תובעת": 9433,
      "הוי": 9434,
      "לגל": 9435,
      "ניח": 9436,
      "עמוקה": 9437,
      "האישום": 9438,
      "התייחסות": 9439,
      "דוגמת": 9440,
      "אמנים": 9441,
      "לנצל": 9442,
      "שהתק": 9443,
      "דוח": 9444,
      "גלוב": 9445,
      "הבי": 9446,
      "קשרים": 9447,
      "מבוגרים": 9448,
      "לכלל": 9449,
      "פיצוי": 9450,
      "אלכוהול": 9451,
      "הרצל": 9452,
      "למשתמש": 9453,
      "מרחבים": 9454,
      "איד": 9455,
      "עקרונות": 9456,
      "שהט": 9457,
      "##ומנויות": 9458,
      "הפיתוח": 9459,
      "מבוק": 9460,
      "המסת": 9461,
      "קצין": 9462,
      "בשיטה": 9463,
      "השחקן": 9464,
      "##פעלה": 9465,
      "des": 9466,
      "חדרה": 9467,
      "בינלאומי": 9468,
      "##זול": 9469,
      "600": 9470,
      "ציבוריים": 9471,
      "הבינו": 9472,
      "##כבת": 9473,
      "נכס": 9474,
      "##ifa": 9475,
      "מבוססת": 9476,
      "##כניון": 9477,
      "מרשים": 9478,
      "תכש": 9479,
      "תקין": 9480,
      "חסד": 9481,
      "הרשויות": 9482,
      "מחייב": 9483,
      "בשורה": 9484,
      "פורום": 9485,
      "למנה": 9486,
      "השעה": 9487,
      "מפי": 9488,
      "##ros": 9489,
      "##מותו": 9490,
      "פטור": 9491,
      "הקיימים": 9492,
      "##ניע": 9493,
      "בילוי": 9494,
      "##פטים": 9495,
      "החיילים": 9496,
      "רמה": 9497,
      "שתע": 9498,
      "התנהלות": 9499,
      "הזכ": 9500,
      "המערבית": 9501,
      "רכש": 9502,
      "שאינן": 9503,
      "מצט": 9504,
      "משו": 9505,
      "הדרכים": 9506,
      "מתקדם": 9507,
      "השינה": 9508,
      "800": 9509,
      "##28": 9510,
      "מתג": 9511,
      "זמין": 9512,
      "לאיר": 9513,
      "86": 9514,
      "תלת": 9515,
      "##רוויח": 9516,
      "נמצאו": 9517,
      "עדין": 9518,
      "אנד": 9519,
      "חלוקת": 9520,
      "למניעת": 9521,
      "במסלול": 9522,
      "מקצועיות": 9523,
      "נמל": 9524,
      "עיון": 9525,
      "עמנו": 9526,
      "ציט": 9527,
      "חסרי": 9528,
      "המטופל": 9529,
      "כאל": 9530,
      "להבחין": 9531,
      "##לקס": 9532,
      "התאמה": 9533,
      "אווירה": 9534,
      "עצים": 9535,
      "בקיבוץ": 9536,
      "קהילת": 9537,
      "רגילים": 9538,
      "מחלוקת": 9539,
      "והל": 9540,
      "##ריטניה": 9541,
      "##סקות": 9542,
      "מקומיים": 9543,
      "הסיבות": 9544,
      "ak": 9545,
      "##ניקוי": 9546,
      "##ובץ": 9547,
      "וחס": 9548,
      "הוחלט": 9549,
      "ללקוח": 9550,
      "##יניות": 9551,
      "##מפרטורה": 9552,
      "##our": 9553,
      "הדתית": 9554,
      "לכאן": 9555,
      "מיועד": 9556,
      "##ילונות": 9557,
      "נהרגו": 9558,
      "הערה": 9559,
      "מזונות": 9560,
      "לישון": 9561,
      "jtm": 9562,
      "##דד": 9563,
      "הוצאה": 9564,
      "הערכה": 9565,
      "המערב": 9566,
      "קבלן": 9567,
      "##ימית": 9568,
      "ראיה": 9569,
      "שכולם": 9570,
      "מהמח": 9571,
      "הנדון": 9572,
      "לתיקון": 9573,
      "ומאז": 9574,
      "המפורס": 9575,
      "##רבויות": 9576,
      "לסיים": 9577,
      "##שנו": 9578,
      "טבעית": 9579,
      "ולמה": 9580,
      "##וצמה": 9581,
      "##ניית": 9582,
      "הסע": 9583,
      "הארו": 9584,
      "##יכוב": 9585,
      "לחוות": 9586,
      "בניסיון": 9587,
      "מישראל": 9588,
      "##צלמה": 9589,
      "לשדה": 9590,
      "הרווח": 9591,
      "הנהג": 9592,
      "הגרמני": 9593,
      "##מתה": 9594,
      "וראש": 9595,
      "שבק": 9596,
      "המנ": 9597,
      "##פשטות": 9598,
      "ולמרות": 9599,
      "##55": 9600,
      "פיקוח": 9601,
      "ברכות": 9602,
      "נמר": 9603,
      "פומ": 9604,
      "הכנסות": 9605,
      "אמורים": 9606,
      "סוו": 9607,
      "לאס": 9608,
      "אלג": 9609,
      "ליס": 9610,
      "ראובן": 9611,
      "##ite": 9612,
      "aa": 9613,
      "הייצור": 9614,
      "##פלי": 9615,
      "##פלגות": 9616,
      "שאותו": 9617,
      "##ארו": 9618,
      "##יזוק": 9619,
      "##olog": 9620,
      "שדי": 9621,
      "לאומית": 9622,
      "מפתיע": 9623,
      "##נהלה": 9624,
      "בהליך": 9625,
      "לארו": 9626,
      "##ייר": 9627,
      "שכזה": 9628,
      "הממוק": 9629,
      "מפרי": 9630,
      "נראים": 9631,
      "##מיחה": 9632,
      "תער": 9633,
      "שבכל": 9634,
      "המובילים": 9635,
      "משטחים": 9636,
      "בעיתון": 9637,
      "בתו": 9638,
      "##esh": 9639,
      "##ליפה": 9640,
      "##קציה": 9641,
      "בגוגל": 9642,
      "שפיר": 9643,
      "ראינו": 9644,
      "במחקר": 9645,
      "הניס": 9646,
      "נבנה": 9647,
      "##וננו": 9648,
      "מוזר": 9649,
      "מסוגלים": 9650,
      "ובעולם": 9651,
      "המנוח": 9652,
      "עליון": 9653,
      "##ושינגטון": 9654,
      "לונדון": 9655,
      "##עק": 9656,
      "התייש": 9657,
      "באילת": 9658,
      "והופ": 9659,
      "סטנדר": 9660,
      "ידועה": 9661,
      "ורח": 9662,
      "הכותרת": 9663,
      "התיירות": 9664,
      "לברר": 9665,
      "ובנוסף": 9666,
      "השמים": 9667,
      "הצופים": 9668,
      "המית": 9669,
      "לענייני": 9670,
      "האירופי": 9671,
      "יבש": 9672,
      "##גדות": 9673,
      "החיצוני": 9674,
      "המפגש": 9675,
      "##ומח": 9676,
      "##ick": 9677,
      "ממשל": 9678,
      "באס": 9679,
      "מרוצים": 9680,
      "נותנת": 9681,
      "עוסקת": 9682,
      "הקפה": 9683,
      "נובע": 9684,
      "רמי": 9685,
      "סני": 9686,
      "##נדבות": 9687,
      "צא": 9688,
      "מחשבות": 9689,
      "אסת": 9690,
      "חפץ": 9691,
      "פלילי": 9692,
      "ארוכים": 9693,
      "שהוב": 9694,
      "##פשט": 9695,
      "##רטים": 9696,
      "בחייו": 9697,
      "מיט": 9698,
      "##וציה": 9699,
      "אליכם": 9700,
      "בהתאמה": 9701,
      "בהז": 9702,
      "מרחוק": 9703,
      "בהיקף": 9704,
      "ממליץ": 9705,
      "משטח": 9706,
      "אורחים": 9707,
      "כתיבת": 9708,
      "סלע": 9709,
      "לאב": 9710,
      "קומות": 9711,
      "פונה": 9712,
      "##רגום": 9713,
      "הריון": 9714,
      "צעירה": 9715,
      "ושא": 9716,
      "שעליו": 9717,
      "רצפות": 9718,
      "מנגנון": 9719,
      "קירור": 9720,
      "נאמן": 9721,
      "חובת": 9722,
      "1948": 9723,
      "קיש": 9724,
      "צפויה": 9725,
      "ונראה": 9726,
      "##ופף": 9727,
      "##פנות": 9728,
      "רוני": 9729,
      "קודש": 9730,
      "##לחם": 9731,
      "##פונית": 9732,
      "הסיכ": 9733,
      "אטרקציות": 9734,
      "למנות": 9735,
      "לצדק": 9736,
      "צלם": 9737,
      "חמים": 9738,
      "##שף": 9739,
      "##נצח": 9740,
      "גזר": 9741,
      "שקרא": 9742,
      "נהיגה": 9743,
      "הסקה": 9744,
      "במובן": 9745,
      "במלחמה": 9746,
      "ערכ": 9747,
      "##רמו": 9748,
      "##ביות": 9749,
      "פסיכיא": 9750,
      "##לתו": 9751,
      "##פקוד": 9752,
      "היין": 9753,
      "דיר": 9754,
      "בסיפור": 9755,
      "haifa": 9756,
      "הליכוד": 9757,
      "האימפריה": 9758,
      "זולים": 9759,
      "טעים": 9760,
      "בדרכים": 9761,
      "##יעון": 9762,
      "בדירה": 9763,
      "ומנו": 9764,
      "##זהר": 9765,
      "החברתי": 9766,
      "להיל": 9767,
      "ואביז": 9768,
      "לבחירת": 9769,
      "##ציונ": 9770,
      "מיות": 9771,
      "במבצע": 9772,
      "דתיים": 9773,
      "han": 9774,
      "שנס": 9775,
      "באזורים": 9776,
      "הובלה": 9777,
      "ידידות": 9778,
      "בסין": 9779,
      "נמשך": 9780,
      "למלחמה": 9781,
      "עצמאית": 9782,
      "נייד": 9783,
      "התפר": 9784,
      "##דיקת": 9785,
      "ורע": 9786,
      "לנכים": 9787,
      "מכשירי": 9788,
      "המסור": 9789,
      "חמה": 9790,
      "והאם": 9791,
      "מקסים": 9792,
      "אמש": 9793,
      "##ינתן": 9794,
      "כיש": 9795,
      "רכוש": 9796,
      "##מוח": 9797,
      "ומור": 9798,
      "##ופיות": 9799,
      "הדוק": 9800,
      "הבתים": 9801,
      "##וננים": 9802,
      "ענף": 9803,
      "ירון": 9804,
      "המשבר": 9805,
      "חברתיות": 9806,
      "בשיטת": 9807,
      "ניתנה": 9808,
      "הזיכרון": 9809,
      "188": 9810,
      "##נאל": 9811,
      "##זיקה": 9812,
      "גשר": 9813,
      "##ance": 9814,
      "ופי": 9815,
      "בטענה": 9816,
      "מושב": 9817,
      "המקורית": 9818,
      "אירועי": 9819,
      "מסח": 9820,
      "בהור": 9821,
      "הגיש": 9822,
      "##מלצות": 9823,
      "##בולות": 9824,
      "כדוגמת": 9825,
      "מטבע": 9826,
      "ובכן": 9827,
      "##וכנת": 9828,
      "איפור": 9829,
      "מפוליאתילן": 9830,
      "הקבוצות": 9831,
      "לדין": 9832,
      "ולט": 9833,
      "פירוק": 9834,
      "לאינ": 9835,
      "אוסט": 9836,
      "##מרט": 9837,
      "הפגיעה": 9838,
      "להיו": 9839,
      "נפט": 9840,
      "ההליך": 9841,
      "הבינלאומית": 9842,
      "שיז": 9843,
      "##יטרה": 9844,
      "החולה": 9845,
      "כמת": 9846,
      "ויהי": 9847,
      "לתכנון": 9848,
      "##oft": 9849,
      "התחתון": 9850,
      "מחזיק": 9851,
      "הוט": 9852,
      "##וררים": 9853,
      "לתביעות": 9854,
      "##на": 9855,
      "מייל": 9856,
      "##ולר": 9857,
      "הממוצע": 9858,
      "הבעיות": 9859,
      "ההפ": 9860,
      "לבתי": 9861,
      "המפורסם": 9862,
      "ומשם": 9863,
      "##ובלות": 9864,
      "##bs": 9865,
      "סביבה": 9866,
      "הקה": 9867,
      "מרט": 9868,
      "תהליכי": 9869,
      "מנגד": 9870,
      "אסתר": 9871,
      "תפקידים": 9872,
      "חידוש": 9873,
      "נגדו": 9874,
      "##ונר": 9875,
      "בינה": 9876,
      "לחתונה": 9877,
      "משלוח": 9878,
      "אפי": 9879,
      "##eh": 9880,
      "##ביץ": 9881,
      "##והי": 9882,
      "##פוף": 9883,
      "ind": 9884,
      "להזכיר": 9885,
      "חיובי": 9886,
      "##ba": 9887,
      "הפט": 9888,
      "מבקר": 9889,
      "הנור": 9890,
      "82": 9891,
      "השתתפו": 9892,
      "השביע": 9893,
      "חכמה": 9894,
      "אגרג": 9895,
      "המבצע": 9896,
      "מציין": 9897,
      "וירט": 9898,
      "בוגר": 9899,
      "ההצעה": 9900,
      "##ныи": 9901,
      "תינוקות": 9902,
      "בכדור": 9903,
      "הפינ": 9904,
      "גוד": 9905,
      "אישום": 9906,
      "שותפים": 9907,
      "mar": 9908,
      "לקט": 9909,
      "בחברות": 9910,
      "כשמ": 9911,
      "המכירות": 9912,
      "בכניסה": 9913,
      "##רבת": 9914,
[...]
